/**
  ******************************************************************************
  * @file    quantized_a025_pt_36porciento_data_params.c
  * @author  AST Embedded Analytics Research Platform
  * @date    2026-04-02T14:16:31-0300
  * @brief   AI Tool Automatic Code Generator for Embedded NN computing
  ******************************************************************************
  * Copyright (c) 2026 STMicroelectronics.
  * All rights reserved.
  *
  * This software is licensed under terms that can be found in the LICENSE file
  * in the root directory of this software component.
  * If no LICENSE file comes with this software, it is provided AS-IS.
  ******************************************************************************
  */

#include "quantized_a025_pt_36porciento_data_params.h"


/**  Activations Section  ****************************************************/
ai_handle g_quantized_a025_pt_36porciento_activations_table[1 + 2] = {
  AI_HANDLE_PTR(AI_MAGIC_MARKER),
  AI_HANDLE_PTR(NULL),
  AI_HANDLE_PTR(AI_MAGIC_MARKER),
};




/**  Weights Section  ********************************************************/
AI_ALIGNED(32)
const ai_u64 s_quantized_a025_pt_36porciento_weights_array_u64[30568] = {
  0xfbed130dfb05e7deU, 0xb6e281a902d3d710U, 0x2a44100f00f0ec98U, 0x1f2a02U,
  0x0U, 0x0U, 0x605000000000000U, 0x304fcfa1734180bU,
  0x3fb012967370901U, 0xfb051938210b0406U, 0x4U, 0x0U,
  0x0U, 0xfbfe00fd00000000U, 0x70d05fcfbfefcffU, 0x1410040e0708190bU,
  0xd711281d193f2d09U, 0x1e1ec41b1fc61019U, 0x24bf1821c50b1bdaU, 0xd50b19da0415e619U,
  0x20a070104020e1cU, 0x130aff0502f2ddf0U, 0x4ff0604e7c1dc05U, 0xe225faf2dfe80109U,
  0x31f6c648f4cd43f0U, 0xf9ba5fe8c455e8daU, 0xc754e3d14ae7e128U, 0x10319U,
  0xe501U, 0x12f270000a535U, 0xcdf200019232U, 0x2fdfcd000fa00ffU,
  0xe5f0f9b200e800fdU, 0xd5f0fbf7001000ffU, 0x7d350c00e500ffU, 0xf7991706009600f9U,
  0xeebfd805007f00ffU, 0x8f82029000100fdU, 0x50b044600090004U, 0x2503e80000f500fdU,
  0x1058U, 0x1a67U, 0x32e0000106aU, 0x248700003a15U,
  0xd1fe010000030002U, 0x114030100f800ffU, 0x2d306f600b800fdU, 0x47f8ff0000050001U,
  0x1014f00050002U, 0x10437fe000100feU, 0xfe00e700020000U, 0x2710330700f7007fU,
  0xff012200000000feU, 0xf6000100080000U, 0xff00020100190000U, 0x4d9030400df0007U,
  0x8390d00004100feU, 0x1ec00f800ef0002U, 0x20dffe800000093U, 0xfe02fe2800030001U,
  0x9a00000c85U, 0xfffff1150000152cU, 0xfffff76ffffff3ffU, 0xffffdf6400000771U,
  0x4ddffffff86U, 0xb76ffffff12U, 0xa68ffffe987U, 0xfffffd7f00000fedU,
  0x100503fc00f905U, 0x3fcf9fffe11fe03U, 0xffdb03fbff0206fcU, 0xedf922fd04e3fff6U,
  0xffbd15fc0200fdf7U, 0xe5fcdaff020303caU, 0xfffb0002f3fef620U, 0x30af202e930f5f9U,
  0xfd4702f6fcfc0b11U, 0xff123605fcd3f2feU, 0xfd7f04fb08feffe6U, 0xfc0bac030707fff3U,
  0xff1bfc03fafffc0fU, 0x1fd0704e91af90dU, 0xfeea00f2fefa0304U, 0x5fc160802fdf202U,
  0xfed3f3f505fcfff0U, 0x6fde703100afa1fU, 0x4530000002aU, 0x41100000508U,
  0xa00000228U, 0x53afffffddeU, 0x60a000003c2U, 0x1b0000000a2U,
  0x43a00000046U, 0x703000002adU, 0x40003ff03fb00U, 0xff01000304080701U,
  0x1f600fe0000ff00U, 0xff1200fe01000000U, 0x10c01f20000f1U, 0x10000f8U,
  0xffff010001fd0000U, 0x101f8fd0d0503ffU, 0xfc00060100U, 0x40200ff00U,
  0x1fe01f6000000feU, 0xe7fe01fe000200ffU, 0xff00fc01eb00ffedU, 0x101ff0000000102U,
  0xfe00f400ff0101U, 0xfe0001ff00fffeffU, 0xff000000ff0000U, 0x101000000U,
  0x7fb00fd03fcU, 0xbfe0504fef9de03U, 0xff1a0004ff00faU, 0xff0000fffdf7U,
  0xfd00fe0103fe00U, 0xff0702fd00ff00U, 0x20efd01ffff0001U, 0xf40400fd00fe0102U,
  0x600fd000000U, 0x1f8U, 0xffff000101f6fd00U, 0x1ff01ebfe000100U,
  0xf9000100000000ffU, 0xffU, 0xffff00fe11fffe18U, 0xff0000ff0100f9U,
  0x60004000002U, 0x1ff00fff7U, 0xfffdfffaff020100U, 0x18fe00fe00ff00ffU,
  0x701fafffd0f81ffU, 0x2140315f6e9ffU, 0x50108ff000000U, 0xb01010100000100U,
  0xf6f9fe000003ffffU, 0x1d200ff0100fe01U, 0xfa00ff0000feU, 0xff01ff0dU,
  0x100010100ffU, 0xf90000fb00feU, 0x100000000000300U, 0xf402fff9ff00U,
  0xf40201fd00f2ff00U, 0x202000b00ffff00U, 0x8ff0f0100U, 0xff00fe0904ff0001U,
  0x101ff020800ff12U, 0x101ffff00000005U, 0xfe0001000001f600U, 0x301f9ff01U,
  0xfefffefffffb2001U, 0xff08fb082b0102U, 0x1f0ff0000010000U, 0x4fbff000001ffffU,
  0x1ff00ffff00U, 0x200000001ff1100U, 0xfffffe7affffff04U, 0xfd000003d7U,
  0x7d20000004bU, 0x3b60000067cU, 0xaa0000016eU, 0x19effffffc8U,
  0x4560000024eU, 0x32c0000059dU, 0xddfffffc8bU, 0x1e61fffff9adU,
  0xd20fffffd31U, 0x2a40000012bU, 0x791000001cfU, 0xfffffcedfffffcb8U,
  0xfffff10c00000610U, 0xfffffffb00000218U, 0x20001050001fefeU, 0x40200fefd010001U,
  0x1fd010000ff0601U, 0xfff30002000000ffU, 0x6ff00ff01fdfc06U, 0x4ff00fdfd0300e8U,
  0x2fa0001fffff601U, 0xff0cfffefcfe05feU, 0x1fd01fcfe00fefcU, 0x4fd01fffe020000U,
  0xfef70100ffff0202U, 0xfe050005fc0200ffU, 0x1f2070103feU, 0x60a01fef60100e2U,
  0xf905ff0300ff0bfeU, 0x1e800ff03080400U, 0x1002fddee8f2131fU, 0xe2fdfffc06fffe7fU,
  0xdafcfe1c01f3e003U, 0x516021ef3f6ef0cU, 0x201011202fa06e9U, 0x3f900fe01feffe3U,
  0xfb00ff0101fdf700U, 0x4080100fcf80501U, 0xfdfb01f705f2fffcU, 0x307fc0107fdfffaU,
  0xffea01000000d805U, 0xfe2bff07ea0203fdU, 0xe808f71ff613ffd9U, 0x400fa13f0fbfdf2U,
  0x1b2affe5031636f9U, 0x2d605ee220c010eU, 0xfc0700080204012aU, 0x4fafa0000fcfffaU,
  0x20700fe01010cf5U, 0x2ff010b08fc0300U, 0xffffff56000000bbU, 0x1100000007dU,
  0x18300000176U, 0x6effffffe9U, 0x10cfffffff1U, 0x15500000168U,
  0x262ffffffc0U, 0x20300000064U, 0xc700000162U, 0x3fffffffe5U,
  0x1caffffffd3U, 0xeeffffff80U, 0x196ffffff38U, 0x1a00000192U,
  0xffffffeefffffda3U, 0x21ffffff8bU, 0xed010d0c0a1bff0fU, 0xfd0807fe0805faf1U,
  0x1be0009fc0433fcU, 0xf0fbfc00e4ee0000U, 0xfefe030119fffffeU, 0x408fdfe03fce217U,
  0x4fe02011bfe0404U, 0xfcfc180104fde41bU, 0x1102feff010103U, 0x102040000e800ffU,
  0x9000001ff04d0U, 0x800ff010201fd01U, 0xff000cfe00030631U, 0x9f7fe0a32fa0306U,
  0x37ff02fcfdec0300U, 0x1fcf0fb0704fdfaU, 0x8fdf8f7fa2004f6U, 0xfdf106040007110bU,
  0x1bd08ed00022703U, 0x706fc02e404fffcU, 0xfe0300fcf9ff00fdU, 0xfdf5fefdfb02feU,
  0xff20fef9fffecb09U, 0xfe03ff00cd04fdfeU, 0x1021bfe08fee101U, 0x7f030df6fdff0301U,
  0x60824f205e9feefU, 0xf904060705fe0b07U, 0x1300f51621ff0108U, 0xfe26fdfa020002f4U,
  0xf701fbf6effffaffU, 0xfdfaf10002e50bfeU, 0x101fdd2ed02f8d4U, 0xfdf4fbf72204051dU,
  0xf90202d9ea0501ffU, 0xfbfdf7fb00db0df8U, 0x603fd33e4fff713U, 0xfff500f9dd00052fU,
  0x6fe05dbf00402ffU, 0xf612f604fd2812fcU, 0x2fff702f2fe00fcU, 0xfc01fcfa00fe00f8U,
  0x140002fc00ffff00U, 0x105002402fd02f7U, 0xf9010a0002fff900U, 0xa0009f7fe000104U,
  0xbf704f4fffdU, 0x4fd030000ff0504U, 0x40000fcdbfe08ffU, 0x4f80704f9fdfdedU,
  0xf003f505c108fefeU, 0x206bd0404051ecbU, 0xfe0205020a0203fcU, 0x9fbff07fb0305eeU,
  0xfe00fa031604fffdU, 0xfafb21030001fb11U, 0x200f30b060004c4U, 0xafb0204190100e7U,
  0xfb0101fbfce600ffU, 0xfcfbf90bfd11ebe4U, 0xee0009e5f20002f6U, 0x6b40204f8000111U,
  0xfb030006f4000300U, 0xfefff801fe2408f4U, 0xda0111d600010010U, 0xfe0ff8e10a01f8f2U,
  0xfc010405f60bfe00U, 0xfcfffafb00c2fb00U, 0xe90a350603ff40feU, 0x1bfe021c0901ff00U,
  0x105b5ecff0e0001U, 0xfc0505fc0200f30aU, 0x605fbfe00ff0000U, 0xffffff010008ffU,
  0x200fe00000102U, 0x320102fffe020301U, 0xfc31000303fe0002U, 0xfb03050202f8f901U,
  0x112010401040326U, 0xf401000100fffb00U, 0xe0300ebfc030b02U, 0x5f8fd0601031a05U,
  0x101fded07110102U, 0xfc0206fffd13c604U, 0x200ff00000100U, 0x100d50000e300ffU,
  0xff00ffff00fe02U, 0xfeffff0001000001U, 0xff0306ff0300f800U, 0xf304ff03feff0305U,
  0xff0cf701f80100U, 0x12b00f900fb0702U, 0x6fbe9fffd020703U, 0x6fe00160001f8faU,
  0xfefff211ff17fe02U, 0x7fffd02fffffeU, 0xd1021301fc00fefcU, 0x6040020fbfe05feU,
  0xfcff102901260002U, 0x4fcff04fb01fafdU, 0xed0108470503ff02U, 0x70b02e21bfcfcfcU,
  0x1fffff40201feU, 0xf9f4fd032becf4U, 0x1feff020700ffffU, 0x30100ff0301f906U,
  0x40002ff05fe0003U, 0x1000600fefefa06U, 0xf802f203fefce306U, 0x8bfdf3f503f9fbfeU,
  0xfe2504fef5020dU, 0x4f405fd05ffeef9U, 0x1d01f8fc00fef601U, 0x70200fa010106fcU,
  0xff000ec2010602fdU, 0xfffcffff00020ffeU, 0xfae20400ffc902faU, 0x5fb050201ee03feU,
  0xff34faf40001d2e9U, 0x700012a01fb00U, 0x2000000U, 0x10000000100ff01U,
  0x100010001ff0001U, 0x2000000fe01U, 0xfef2030601eaff03U, 0xfdfff6fc010e08fdU,
  0x3ee02ff000510c4U, 0xf3fefd0024fdf901U, 0x2daffffff9aU, 0xfffff8bd000007c4U,
  0x2cefffffe0fU, 0x180ffffe0c5U, 0xffffee7c00000cf9U, 0xfffffda900000510U,
  0x15c000002b1U, 0xfffffdff0000060aU, 0x27b00000d32U, 0x60000003eU,
  0x913000003f8U, 0x5a50000011cU, 0xfffff2b9fffffaddU, 0x15e30000009bU,
  0x70efffffc11U, 0x55800000149U, 0x101fd0100ff00ffU, 0x102ff0100000101U,
  0xfeff010201010002U, 0x11101010104fffeU, 0x202fa0201fe02feU, 0x303fd0204fe0203U,
  0xfdfdff030102ff03U, 0x225020302effefbU, 0x101fc0201fe01ffU, 0x202fe0102ff0102U,
  0xfefefc020102ff02U, 0x1c702020106fffeU, 0x202fc0201fd01feU, 0x303fd0200ff0102U,
  0xfdfe02030202ff02U, 0x21a0102020bfefdU, 0x303f70403fc04fcU, 0x506f90300fc0405U,
  0xfafbfd050304fe05U, 0x32d030505d8fdfbU, 0x202f90202fd03feU, 0x304fc03fffd0303U,
  0xfcfcf8040203ff03U, 0x2810203030cfefdU, 0x101fe0101fe01ffU, 0x202fe02f9ff0102U,
  0xffff02020101ff01U, 0x11601020105fffeU, 0x202fa0202fe03feU, 0x303fc03f6fd0204U,
  0xfefdfd040203ff03U, 0x219020302e7fefcU, 0x201fc0101ff02ffU, 0x202fd02f8fe0202U,
  0xfefefb030203ff02U, 0x1b101020209fffdU, 0x3100000225U, 0x3b0000010eU,
  0x9000000025U, 0x500000079U, 0xfffffff600000025U, 0x1ee00000246U,
  0x1c00000002cU, 0x170000000eU, 0x1d000000005U, 0x19ffffffbeU,
  0x3540000000eU, 0x3430000026bU, 0x23f000000b3U, 0xffffffe90000008fU,
  0x2300000049U, 0xd000002e6U, 0x103ffffff04f4faU, 0xeb01f805fcfbf7faU,
  0xfefe000d03d20105U, 0xf9fffff604f9fe01U, 0xfb05ee3102f8fae5U, 0xfa0404fe0203faf9U,
  0xfc05f7f5050702f9U, 0xdc0a4900f3060dfaU, 0xc0403fff9ff04feU, 0xf3030a00fc00fdf6U,
  0xfa020a1003f60e02U, 0xfd02fcd1fafdf7ddU, 0xfcf30101fefccffeU, 0xf00015280d050104U,
  0xda0702f802fef7fdU, 0x1faff0614fe02feU, 0xbcfc01fe01020001U, 0x6ff03fd02fdfbfbU,
  0xf9030107ff01fcefU, 0x2fd0107fbf7100dU, 0xfd0900ff00020102U, 0xffff0206f903fdfcU,
  0x10010300fffe04ffU, 0x1fffdf8fe0206U, 0xfc02f4ccfd02ffb9U, 0x204fd02faf60507U,
  0xfdfc040dfc0302fcU, 0x309f8fffd05ff07U, 0xfe01fffd01fd05feU, 0x30100ff02fffffdU,
  0xfd00fefb0fc50300U, 0xfd0100f3ff0203eeU, 0xf5fdfe02fe0402fbU, 0x5620501fb027ec4U,
  0xb0a0e0600ee097fU, 0x7f5fe0a0bf63f09U, 0xfd030100ff000200U, 0xfd00fe0100ffffffU,
  0xfffa0000ff010101U, 0x50000fd04feffU, 0x0U, 0x0U,
  0x0U, 0x0U, 0x503fcfb08020104U, 0x2040a0f01080405U,
  0x4fe0102f6fe0402U, 0xfc08f9fc0809fe01U, 0x329ffff0500fd03U, 0x8feffeb9c04fe02U,
  0xfb02fa060e01f900U, 0x40400fc0dff020cU, 0x4f0f5050519e90dU, 0xfefafcf6fb04fe01U,
  0x11fc07050d1606f9U, 0xf3fb0afd04fa0d01U, 0x1ff101fffaf719fdU, 0x10313fafafd0806U,
  0xf80502de0cf61109U, 0x6f70000fef3f8eeU, 0x307fd01ff0201f5U, 0xff030208fd0102ffU,
  0x5ff000d470301U, 0x10005fb0602fefcU, 0x4fd090202e40401U, 0x2010002020101U,
  0xf9fffd03d5040101U, 0x1aff0c0003feff00U, 0xffebf400f1fb17U, 0x20100fcf90006feU,
  0xfe002ffd29040101U, 0xea001902fc01fcfbU, 0x5fbfb03fff20802U, 0xfcfe00fefdfffffeU,
  0xfa03a600fcf7fd03U, 0xfbff05f90100fefcU, 0xff01fb0100050005U, 0x1fd0000010100ffU,
  0x10afcec04fe01U, 0x60115010302fffeU, 0x4feec0d00bafaf3U, 0xf9fefcf1fa0104fcU,
  0x6fe04fb351d05fcU, 0x53f80cf9f7f70903U, 0xf3f8fd0529fe21ffU, 0x8092bee01d8100cU,
  0x4bfd0101fa033906U, 0xf9fef9f2e8fcf822U, 0x4080200ecff00feU, 0xfc2a000300023498U,
  0x111ef7f90503f435U, 0xfb01ff00fe057cf9U, 0xf00102000004f607U, 0xc0100fb090201fbU,
  0xb030703f236fbf9U, 0x501060006fcfc03U, 0x2fbfe0801fdfff8U, 0x71b0905fd0228e1U,
  0x605f3ff01fa1024U, 0xff040205fe0124f8U, 0xb0303020300fe00U, 0xf9000001fbff00fdU,
  0xfd000227010606feU, 0xfc01e901fa04fdU, 0x9effe0109042601U, 0x903f7e20df70407U,
  0xe2fffdfe010af708U, 0xfc00040621fff8f9U, 0xfee9fc0eff1700f1U, 0xff02eaf501fc02f9U,
  0x8fbe40016fef3fdU, 0xf900ee0a0801fef9U, 0x1fe00ffff000201U, 0x30608fc040101U,
  0x4fbfe01ff01f5ffU, 0xfffffa25000205U, 0xfbfefc0806fd0001U, 0xaec070502fadc27U,
  0xf9f2f907fd0510dfU, 0x3040504f801e0fcU, 0xfa08050b05f510f5U, 0xa04fc0d01060201U,
  0x1fcfe0415e4fe03U, 0x505100d0c08fdfeU, 0xfcfe0801ff02fbf7U, 0x100020302ff01ffU,
  0x1ffd000f207feffU, 0xd03f30402ff0302U, 0x200fafbfef4fe0fU, 0xfe030300020001ffU,
  0xff35fdf7200102U, 0xfd0210fefe02fe05U, 0xe0f50502e7fedefcU, 0xe7fe1108ffe70703U,
  0xddeffa0606fbff05U, 0x4d1ff0405daeff8U, 0xf0405fd0f00e7feU, 0x3fc1a14fff7f6f5U,
  0x228fdf70001cdf8U, 0x11202fd0b101002U, 0x4e00402f0fd00U, 0xff00ff06000001ffU,
  0x2fe03010aff0100U, 0x1b02eefefb01fffdU, 0xf7fbfefd04fdff0bU, 0xdfd00000200f508U,
  0x3fe23fdfc30fd09U, 0xe0804fe080cU, 0xfc0ffdfffbfd0703U, 0xf6fcf509f9fbfdfbU,
  0xa0c04fbfafffbf6U, 0x204fefb08020605U, 0x9ff021cfe01fd20U, 0xfe00fe04fffffefeU,
  0xff01fe0102fd0108U, 0x204fdfefc03f901U, 0x12f804fed9fff8feU, 0x15edf70e02e2f3f1U,
  0x1013010e00fb2307U, 0x4ff0d0c09f8f3U, 0x409fffdfe021000U, 0x5fff7ff04f80300U,
  0xe50a03fdfdfdfb02U, 0xfe00fe08feff00f7U, 0xfb4003fe0be709fdU, 0xafbf8df6a07fdfbU,
  0x49fc07fdf8fd02feU, 0xfa04f3fae805030cU, 0x2fffe0001f8fa08U, 0xfd0205ffff00ffU,
  0x2ff3efeed090100U, 0x40108ff02fffffdU, 0x7fefe0404002003U, 0x80500fc0dfd0805U,
  0xdf0500000607fd05U, 0xfe0408fc1701f902U, 0xfb080000fe01fffcU, 0xafefd06ffff00feU,
  0x50201fffafbff05U, 0x301ffeefe01faf1U, 0x1fb07fe02000308U, 0x4fdf800000304U,
  0xfafe4c0508f90002U, 0xf0000d00fffffe00U, 0x602f5f503ed020eU, 0xfe0102fbfd02ff00U,
  0xfd0043ff14f40001U, 0xeffe1802fc01fefbU, 0xf9ff03fc3e00fe03U, 0x417fc05ffe10511U,
  0x130ffc01fe02ff0eU, 0xfffbfef8effcf00dU, 0xfce9fdff00000300U, 0xfdfffdf8fff9ffffU,
  0x8fbfffb0201f500U, 0xff01fdff0f010002U, 0x1130f6080000f2fcU, 0xdf605ebc20ceaedU,
  0x405ffffe01f429f9U, 0x702fade2a000f35U, 0xfbec02fdfc0ae4fdU, 0xeefe0a1d110600ffU,
  0xd804000008ffedfeU, 0xfbfe0815f202f5U, 0xf41af00e030715edU, 0xc020b1306020001U,
  0xfafef5e92fecf2fbU, 0xf7061920060d08f9U, 0xf305000004ffe600U, 0xf702110403e80303U,
  0xe4f9fe0502ff0405U, 0x4f3ff0307f5f7fdU, 0xfb00020201fe0307U, 0xf02000303030305U,
  0x304fff9fc13fffeU, 0x102ff0e01060206U, 0x603ff00faff00fdU, 0x2c05ff01fefe0304U,
  0x4fbfe03fffffe00U, 0xff08fffe0104fb05U, 0x8ff06fafff9fcf9U, 0xed01010001f706f5U,
  0xf9ff05ff03bbfff8U, 0x10302020106f5feU, 0x8ff02fffdfaff00U, 0xecf803fb00fdf207U,
  0x8fdfd08f9db020eU, 0xff02f8f0f9010ff6U, 0x39fcfdf7fe030109U, 0x33f516f1f219f4f0U,
  0x20e6fffafafde4dfU, 0x3fc04d915f42837U, 0x1410fb01e500dbfbU, 0x7151f14fa651524U,
  0xfb130afef8f5061bU, 0x50002f6d105e60aU, 0x1fbffff080141ffU, 0x402f7ef05fd0404U,
  0xfdfbfefc06040201U, 0x301020300ff00U, 0x4fff5f6ffeb0016U, 0xfffd00fb0003ffffU,
  0x1450118ef0302U, 0xebff17fe00fefffbU, 0xfa28030709ff16faU, 0xc00f5daf3f500feU,
  0x12f501fff9fd0206U, 0xf6fc00faf100fa02U, 0x111dfc03fcfa13ffU, 0x7f6faecee06f7f2U,
  0x401d04f304fd18f2U, 0xc06fee90cfe130cU, 0x1ffff00f7fa0203U, 0x1220003010627d4U,
  0x50cfefffcfe0029U, 0xfd00020503fd3303U, 0x92200001bb4U, 0x1e3800000fcfU,
  0x6de000003a5U, 0x1ebf000026e3U, 0x142affffdc7dU, 0x32300000000U,
  0xfffff95b00000da0U, 0xfffffd3200000968U, 0xfffff47c00000ffcU, 0x9c7000022bcU,
  0xffffe4e0000000a8U, 0xfffff96bffffd24cU, 0x7fdfffff665U, 0x184500001546U,
  0x16dc00000440U, 0x1bef0000084aU, 0x31affffff3feU, 0x81900000be6U,
  0x813fffff01fU, 0x84c00000346U, 0xffffdba900000f8cU, 0xae0fffff909U,
  0xfffff36b00000d97U, 0x4e3fffff795U, 0xffffbd2b00001266U, 0x3cf00001ec1U,
  0xffffffdd00002483U, 0x25a7000005fcU, 0xffffed5000001144U, 0x5feffffe8b7U,
  0x1228fffff4bcU, 0xfffff33affffd287U, 0xfb0020fdff04ff06U, 0x3040202000705U,
  0xfdfd00fbf9010702U, 0xffdf611e107040fU, 0xfffdfefeffff03f5U, 0x6050105f60a06fcU,
  0xfe08f70ffbf9faf9U, 0xe501fefefa070202U, 0xd6ffb507f9fcf8f9U, 0xfbf014d80200f4fdU,
  0x2fcf8fbf903fbU, 0xfffbe20eeddff9f3U, 0xfbf707e607f7ffecU, 0xf216fe2e1bf0fdfdU,
  0xfafdfdf5f42500f2U, 0xfae1fd13e5f9031dU, 0xf8011b00fbfc01f9U, 0xfc0007fd06000901U,
  0x5fcfef8f8ffefffU, 0xf8fa11060f0200ecU, 0xfbfe00fe0002fdU, 0x1fd0008faff02f9U,
  0x60afa0df7fef9faU, 0x22f8fe05f8090109U, 0xffff370af906fa37U, 0xf6fa0cfe0200f6fdU,
  0xe701fdf802fcfcfaU, 0x38fae607f5d6f5eeU, 0xfff60fdd0af9fd01U, 0xaf5ff082c3efb01U,
  0xeae9fc06f3da00eeU, 0xfbf5ec1412f9fce7U, 0xfbd9bf4b43bae3d4U, 0x3c33bf31bd00b6e0U,
  0xf82a222ed327302dU, 0xed33499a4163ea4fU, 0xe0c9bafbbbf41ed3U, 0xaa17198181d93649U,
  0xf4a5b4c0360b275fU, 0x4036211c1523f0U, 0xfef5350d003cf0efU, 0x1010904f700e5faU,
  0x250703fcf501d007U, 0xe104f9e50de0f1ecU, 0xfae60012faf707e4U, 0x12405e824e50405U,
  0x25d0f3fdf9db0afeU, 0x5fdeff71403021fU, 0x3001804faf70509U, 0xfe0708050900f3ffU,
  0xf9fcfdfb06ff01ffU, 0x16ff0f0f1001feebU, 0xff00fe0402010212U, 0x5ef00fbf91c04feU,
  0xfd09fc05f8f9fbf9U, 0x2101f7fdfb090207U, 0x2efab40af840f2fcU, 0x1fa11fafb00ebf8U,
  0xf90501f4fa061101U, 0xebfff6fd0ce3f0ecU, 0xf9ee022201f5013eU, 0xe4d008fe13f2d509U,
  0x3ecf8e8f7210804U, 0x7df02d9e6fd0aeaU, 0x804160cf9d904fcU, 0xff0609030700f001U,
  0x7fefdf9fb01effdU, 0xf7fce307d7fffa16U, 0xfdfc03fe000215U, 0x7f6000700f8f600U,
  0xa00fa05f3fafbfbU, 0xdaf6f9e4fa0b0402U, 0x4e100000090U, 0x68ffffff54U,
  0x312fffffe11U, 0xa4000004daU, 0x162800000286U, 0x71400000000U,
  0x1f4ffffff3dU, 0xffffffd90000000fU, 0x5cffffff43U, 0x7dcffffff5dU,
  0x10e0000029eU, 0x2fffffd83U, 0x994ffffff69U, 0xfffffe7d0000035eU,
  0x2f0000032aU, 0x1f0000005aU, 0xfffffea800000091U, 0x58c0000074bU,
  0x9a0000000d8U, 0x82700000a4aU, 0xfffffef4ffffff5eU, 0x37100000064U,
  0xffffff5c00000670U, 0x67d00000037U, 0x17e00000046U, 0x399000004fdU,
  0xa35000006e1U, 0xffffff0d00000689U, 0xffffff6bfffffe9fU, 0x4900000004bU,
  0x21400000022U, 0x2d0000004a4U, 0xfff006f606fff7f6U, 0xcb1533fbf100fdf8U,
  0xf7fbfc3beae3fb25U, 0xf1edfef6fbf9e4feU, 0x6f0fde504f1eeU, 0xfff9e00408f5fdf9U,
  0xf6fae707db030213U, 0x2040bf1fe00effcU, 0x21fffe02fd0901fdU, 0xfc010406fb00ffffU,
  0xf901fe01fe03fb01U, 0xfafe08ff05010006U, 0xfe04fc0bfff9011eU, 0xfe0ffe0f00f905faU,
  0xf800ff06fe000300U, 0x301050f00fdfc0dU, 0x1a010afc20070201U, 0x710f400ec0023feU,
  0xf803f9f7fffa02f9U, 0xfcfa012a01130d02U, 0xc0f7da0f111de702U, 0x1d04fe0008ff02f3U,
  0xfff8100b08f219e1U, 0x2ee0d04e34cdd03U, 0xfcfd14fedffaf5fcU, 0x3f802f4fe00e800U,
  0xfcf9fc02fefb05ffU, 0x9020206fc0ff906U, 0xf9fce800ffebeefeU, 0xeefffd08f506fb10U,
  0xfaf0fe0a03da0107U, 0xe9ff2affea00fa01U, 0x170a05f4e607ff18U, 0xf8091ffe0000f501U,
  0xd01f60604040500U, 0x1006fdfefc2905feU, 0xea110e10fbe90f0dU, 0x107ef0bd21102fdU,
  0xaf0f90113f7f9f5U, 0xaf7f8090df3f115U, 0xfc040141f0ea04e4U, 0x13eff70500000df8U,
  0xf4fafe010102fc04U, 0xf8020008f8122200U, 0xfafd12fffe09f7ffU, 0xf50201ecedfefcffU,
  0x1d300f9f4fffcd7U, 0x40df9fbfbf30debU, 0xdf605ed02f7e8fcU, 0xf60800fff6001806U,
  0x10fb0a0afef604feU, 0xfb01fd19fc0cf8fcU, 0xded0b05fd120b04U, 0x70206ffffff0133U,
  0xffb0af807f5f82dU, 0xf707f70001120606U, 0x604081009f509ffU, 0xf9f30a040100f019U,
  0x10fafdfb01fdfbU, 0xff07fc04fe0200f4U, 0x304dd07fcf60100U, 0x10fdfd01fffefffbU,
  0x211f80201fe0304U, 0xf602040405ff14feU, 0x2eb02fbfe03e6f8U, 0x1000ef61100f7fbU,
  0xfdfaf362db0d07ebU, 0x232f8f803f0fefbU, 0xf9f90b0319fcf6f8U, 0xfef9e6fff9f405feU,
  0xf7fffff92700f5f5U, 0x601fa09fbf9f509U, 0x504fd0101f4fff7U, 0xfd0900fefc00ff0eU,
  0xfdd5ff00ff00f7fdU, 0x8fd07fe1afdfcfcU, 0xf907fb2201faf6fbU, 0xfbe2020500fcfb00U,
  0xd03fef5020307ffU, 0xfe01062600fff7f1U, 0xfef4030302fbf0fdU, 0x1bfe06fb2a0008fdU,
  0x500ffe40223fd21U, 0xfe1bfe09fef80cffU, 0x20ef502d0fb0608U, 0x6072400010401ebU,
  0x2fd0e02edf9fbfdU, 0xf7f90202fe040301U, 0x100f70426f7f5fdU, 0x1f6f8010b0013ebU,
  0xfdedbf00fef902feU, 0x205ee2a04fdf7f0U, 0xfff8d5fbfed4e106U, 0x703ff0203fb0329U,
  0xfe0bfa0efffaeaf9U, 0x4ea0000f801fbf7U, 0x10005f9fd0206fdU, 0xfffe02fefa00fdfdU,
  0x1fbfd0503010003U, 0xfffefa1305fe00feU, 0x190015fffc01fc04U, 0xfd040203fc00faffU,
  0xfe00fcfffffef5f6U, 0xff0200ff011c0600U, 0xafbfc05fcfcfa05U, 0x6e9e901ff000705U,
  0x4070b0700fc0101U, 0xf2f70308dd20f7U, 0x4fb05fd040a0802U, 0x2ff07001b030000U,
  0x8fadf01e50e0103U, 0x50cfffffdfa04feU, 0xeb110bef040002f7U, 0x1114f1fd0c000a07U,
  0xe804ff05f604fef3U, 0xed03fa02ff1c43fcU, 0xf11f6ed0906fef3U, 0x4f501f8d5e9fc01U,
  0xea04f8020a07f60fU, 0x12fb08f9160d02f6U, 0xf9ff04fcf1f8fcffU, 0xf9f501040c0001efU,
  0xfeeee6fe03fc06fdU, 0x3faedf2fff401f3U, 0x400e7ff020fe004U, 0x340102060300060fU,
  0xf9f9fa2209f10400U, 0x190a1bfdfe010ffbU, 0xf407fd06fd0102feU, 0xaffff03fb00f2f8U,
  0xfdfb04030406fb03U, 0xfe1b03f003f9fb03U, 0x702f1ff03fa05ffU, 0xf6fff9fb06ff06ffU,
  0xfa0a01f7f500fc22U, 0x204fbfc03e902fdU, 0x1f609000003f0feU, 0x7f7fd000700ff01U,
  0x5000029154df4f9U, 0xfa07fefe050202ffU, 0xfef307010f030005U, 0xfdf8b50100fefdfcU,
  0x2feff020afefffaU, 0x7fb01f801fbfffeU, 0xa01010bff030403U, 0xf6f7fc02010005e4U,
  0xaf613020101f9f5U, 0xfcf305fcfd0a0515U, 0x802e70103fe0f06U, 0xf20803f9f904fdeaU,
  0x60e02ee08f00105U, 0xf9fc0cfcfdfef809U, 0x6c50009fffd3702U, 0xe3f9f7fbfb0004f9U,
  0xdfefffd1b0e1101U, 0x603fffe0e0300feU, 0xfa3ff90a2cf7020eU, 0x20deffcfc05fcfdU,
  0x505ee02f702fafcU, 0x8fb020708fdf905U, 0x20fdfdeedb00f8ffU, 0xfafe06fb1e0004f8U,
  0x5fa370102fc09feU, 0xbe6f60103f204fdU, 0xfbfdd50b052dd8fdU, 0xdbfc02190407f717U,
  0x8f3071909fe1fd5U, 0xf3e4190504f80e02U, 0x18ff06e5f10cff18U, 0xf91ffaf2110029f4U,
  0x2f7050005f809fbU, 0x7d0f5ef0cfff7f7U, 0xa2fbe7110dfcff09U, 0x50801190104f7ecU,
  0x5170cdaf71d0708U, 0x19fdfc09faec1712U, 0xf6021311e4f8fff8U, 0x6c7fcfb080010f2U,
  0xf4f7fcfffa03f906U, 0xf40debfe0513eaeeU, 0xf6f003f4001307f9U, 0xf5f60a03e8f2fcf7U,
  0xf70716f2ef20e4e9U, 0x2cfdf3f21cfb06fbU, 0x32101f3f903ff04U, 0x16fff0040a00fb01U,
  0xfb06032740c917b1U, 0x503fbfe06fdfc00U, 0xfae307fedcf505fcU, 0xfc0809fb00f302ffU,
  0xfffb040415fb070eU, 0x606f10002f7fbfdU, 0x212fdf4fb0401f9U, 0x1309d5010600fe01U,
  0x101fa0a1cd11b91U, 0xb08fefb0d07edfdU, 0xf7f209fddcff0901U, 0xf30a03f7f804fa06U,
  0xf900dafc2e02f907U, 0xff01f9f903f405f7U, 0xf30311060c15041dU, 0xfd0804040d00f4ffU,
  0x2a01ff00010212fcU, 0x20f711ff09010110U, 0xfc07f81102f903efU, 0xcfefbfa09290301U,
  0x2cf300fb02f90104U, 0xcfbeff804fd0718U, 0xfbfd060306fdf4f6U, 0x4ff0090007000004U,
  0xfb030509f7f60412U, 0xfece0107ff080402U, 0x303fffd05fefefeU, 0xfafe06f700fd01edU,
  0x4f3db050501fe0fU, 0xfe040dfbfdfcfbfbU, 0x40e06fcff041d02U, 0x4ffff03ed00f8fbU,
  0x701011ae10317efU, 0x160507fb020c0c04U, 0xfae40007080602f0U, 0xf8087f00f702fc11U,
  0x30702fa0b01fff6U, 0x90afc1201f80600U, 0x30700fe030205ffU, 0xf406fa02ee00fd05U,
  0xff0006feeac9f00aU, 0xf5f8fefcf3ff05ffU, 0xfd14f805f4fd0101U, 0xfdfb28ff07feff0dU,
  0xfe05220213000207U, 0x205f400f80704U, 0xafffc10f304fdfdU, 0xf9faf4fa2300fb0aU,
  0x50aff0603fff8ffU, 0xfde0fb1a03f8fcf6U, 0x1fc08fd00120b08U, 0xf601060405fff51fU,
  0x50406f7ff02f423U, 0xfcfb000408effdfdU, 0xf3f9f2e909f6fae4U, 0xf0240d080300dff7U,
  0x7fbf7fbfc0401ffU, 0xaf81203050b0715U, 0xf2fd12f505f2f305U, 0xf806fce6f90504fdU,
  0xf1170d060bdf030cU, 0xecf31002ee0103f9U, 0xebf7fc0513fa05f7U, 0xf7e40712fd00fc0cU,
  0xec13f8fa0305fd03U, 0xec0406f613c4e605U, 0xfbfbe6fcf311faf8U, 0xfdfc0df02be719e8U,
  0xeb0d0bfffe1605f4U, 0x161e18faf6f6fefbU, 0xf319f7f502eaf0U, 0xf10b2000fa000cf8U,
  0x5fcf1fd06ff04f8U, 0xfe05f1fc021103f5U, 0xf9fbf5fb07000002U, 0x3f9fdf301fdffU,
  0xfbf916ef282d01ddU, 0x3106f1f919f4fdf3U, 0x1810fe0ffc071007U, 0x5206fdfdea00fef4U,
  0x5f9fa030fe7f714U, 0x3f700f602fd1101U, 0xf3f3f8041a0cfa0fU, 0xf105e507f00dfc1bU,
  0xf0918f7f90305e4U, 0x3f2040500fb0607U, 0xe3f50ff2d0fbff12U, 0xfb06012919000cffU,
  0x110711fe02fd04feU, 0xbef02edfdf8fcfcU, 0xb06f3f1fff4edf9U, 0x8fdfefc04082ff8U,
  0x13edeff5fe1820e3U, 0x91b24ff180404f8U, 0xcdfdf901fcc3fcU, 0x6000205f800fc04U,
  0x60102f9100efee8U, 0x9feff0411100800U, 0x6f805fb2504000fU, 0xf90b03f9fd17fa07U,
  0x20903f90cfcfefeU, 0xfc080202fe05fef9U, 0x904fbef080a0501U, 0x7f8fd0d0e00faedU,
  0xf7f2f80504050105U, 0xf903f1060cf8fcfbU, 0x80010050000ef03U, 0xf50201fbf2f9011aU,
  0xf9e304fdfc0c040fU, 0x303f40000f60302U, 0x10ecfbda03fcf919U, 0xdd04f6fd120007f5U,
  0x15fb050209ef00faU, 0x5d8ee0f00e3c9f6U, 0xf00f0fff60d0c01U, 0x100101021e07f6edU,
  0x1c13f6e6080701ecU, 0x206fd040b010706U, 0xe08fb0af9010907U, 0x220006fff500fefbU,
  0x1fefefb03fefd09U, 0x1f301f902fc0503U, 0xfcfbff0806010207U, 0xfd05fe060004ff0bU,
  0x7010afbfe03fefbU, 0x1fa000301020307U, 0xfe1bf8f708f9fdfbU, 0xdd0afefb1700f8feU,
  0x200fc10eff40e15U, 0xe12000d10f6ed00U, 0xfef8f73af5fa0bU, 0x60935f8fe0500ecU,
  0xf8f80b03f702f6fcU, 0xff04000af804f6f9U, 0x1fffaf6e7fdfa01U, 0x7fe0107001b2eU,
  0xff233f01fe020301U, 0x5f90bfafc02fb05U, 0x8fe00fd03c808faU, 0xcefdfcfd010302ecU,
  0xfcf2ff0009fe08f1U, 0xff0815ff0603f0fdU, 0xf60402edd30501f1U, 0xa0bf8fdec00f3daU,
  0xfcdacdf7ffff0209U, 0x81adff4fb2501e8U, 0xfa03f9f9f601e402U, 0xdb0204eff003ff0dU,
  0xf3e209d1f2fafbffU, 0xf2de050202f9ecf8U, 0xf80aeb0f0af40ff2U, 0x15e7fcfc0700f8f4U,
  0xf6fffcd1e7cb0ce7U, 0xfd08f9f3fee50ffaU, 0xc07e70c34f8f0fbU, 0x50aa5f30cf7fcf7U,
  0xfa0d2ce808fe25e1U, 0xf20f09f5edfaeaf8U, 0x10006f7e1100308U, 0xfe03fb08f200062fU,
  0x1201506fe0801fdU, 0x4ed43ec040ffc40U, 0xff16090bfefbfcU, 0xf000ef00fe0300cbU,
  0xf900e101fbff09U, 0x22eafb0704f2e309U, 0xf2f924f9f0f7fd08U, 0xfd060504f400f200U,
  0x17fc0a0104fb15ffU, 0x22f809fb00160a0cU, 0xf4fa10ff00e0f8f3U, 0xf200fe07ec21fdfeU,
  0x10f0121f09ecfc06U, 0xf7f60df9eef00a02U, 0xff1e03020201fb02U, 0x6f30aff0100fefeU,
  0xfffc0004f5f6fe07U, 0x1f6fe02ffff0efdU, 0xfee8f6fef7fbff03U, 0x10405fb0402fff8U,
  0x201f9fcf4ff0101U, 0xfefd01ffff01fcfbU, 0x30affff01fefffaU, 0xfb0f0afffe0000feU,
  0x6fefef4eee427e9U, 0x19fd02feff04fa04U, 0x3eef7fb01fb060cU, 0xff200efdfc0500fdU,
  0x301fafffd02fd04U, 0x2f700130205faf8U, 0xfde200fdfc03d907U, 0xf3f4efff0c0004feU,
  0xfefa0220e4f51303U, 0xff180500e907fa05U, 0x22120aff06fc0aU, 0x30a0e07f3f403f5U,
  0xfef8f003f1fdfd05U, 0xf8fa03fb01fefd05U, 0xfd0005f1eef7fe01U, 0xfdfb03f9f8001e08U,
  0x901f303050204fdU, 0x5f2efe601010aefU, 0x12fe02080505f5fbU, 0x5fe0305fe06fee9U,
  0x8f111130505de31U, 0xfe07fbfefa091a06U, 0x3fd06030304f6ffU, 0x1fd03fc000b02U,
  0xfd03f70405fcf6fcU, 0xf8fe08f905fefe06U, 0xfdfe000800020efeU, 0x2fd000302fc04fcU,
  0xfd0afde8fef5f802U, 0xfefb02fff9f9f804U, 0x803fb0326f5f806U, 0xf9ff041d0600eefdU,
  0xf7ffe90302fb0001U, 0xfdfbfd1606fffefeU, 0xee0607f9fbf2f012U, 0xd03fb0cf8f71e25U,
  0x10bf3fe010be1fdU, 0x3eef90a02eb02f9U, 0x4fd00062d000103U, 0xfd05f804f600f328U,
  0xfe1f1900fefffefeU, 0x3fe0df000050a0cU, 0xf5fd12fd04252004U, 0xa02fafbf6ff00c6U,
  0xfffdfbdf040be100U, 0xaeae005fffc01feU, 0x100ff0000U, 0xfe00U,
  0x100ff0000000000U, 0x100000400010100U, 0x6ff010000000000U, 0xff0000ff0001ff00U,
  0x100000100ffffU, 0x101ff0001030100U, 0x3f70400ff0204fdU, 0xeb09f7ff0300fffeU,
  0x20300fbed0e0633U, 0xfffbfe030003fc00U, 0xfbf802f0ff0502U, 0x3f9fcfb07fe00U,
  0xff01f5fe0502fd00U, 0xfd0102010200ffU, 0xedf7ffff08fbfc00U, 0xfef2eee70f00fefbU,
  0x4ff0dfd04fc0bfcU, 0xafd010204f6f904U, 0xfef6ebf80302e9e8U, 0xfafb05e1190bebe5U,
  0x203fd0f09ff030eU, 0xfdf5fa0319fdU, 0x403fbfc03040500U, 0x9c13f600fb0003fbU,
  0x7fcf7050efa01e7U, 0x23b00fe020104ffU, 0xfefffe09fc06fc03U, 0xfb05f408fb04fe11U,
  0x1071df904fc01efU, 0x2fe020405fc01ffU, 0xfd00010b2dfff501U, 0x5f9f0f1ed000901U,
  0x6fdc6080403f6ffU, 0x5fbf506fdfff7U, 0xf2f71f0003ea2607U, 0xe07fdfc0500f8feU,
  0x50d05e1fcf4dd0aU, 0xfa190d0cfbf80200U, 0x11fa06f71afcfaf9U, 0xf8fbe803080007feU,
  0xfa00fa0a05fbf300U, 0xf4e8080204f10609U, 0xfbfcfcff020dfc0eU, 0x4040b05f402f9U,
  0xf90ff9f3f505f7faU, 0xe4f7fb03b1040c01U, 0x2f6f7f80223f6f6U, 0xfd0afd060a00fe1fU,
  0xf18a160305fcecfeU, 0x11f82900200401eaU, 0x9f4f635030824edU, 0xf8bc01fd00fb0af5U,
  0x1bf80e050be4f5faU, 0xeaf2043deaf403d3U, 0xf5ffcffa1504fef9U, 0xfcf9102d0700ed03U,
  0xfdfdf201fbfbfdfeU, 0xf4060af5fa25f90eU, 0xfffc0b0103fefe08U, 0x805010aeefa1d05U,
  0xfaf905020be7e60bU, 0xdfd4ec041402f200U, 0xf9061601eefffafcU, 0xfedff704f700fbfbU,
  0xfdf9ef03fefafa06U, 0xfd0ef3eb012de5f4U, 0xfc04f801f905f5faU, 0xf0fd000ad8feff07U,
  0xfcf207eef90df71cU, 0xbe109f921fdf6feU, 0xf803080413fd05e2U, 0xfefdd9f914001cd0U,
  0xd8ddf0f901020005U, 0xe4e60f1bf8f80d10U, 0x17faeffa0107fd05U, 0x6fc050015def0f3U,
  0xdaf403f3fa1ff426U, 0x210603f50a15e1f9U, 0x3fb03f5f9020b06U, 0xd005fc00f400f503U,
  0x204031dedf50777U, 0xfef0fefe0d010200U, 0xfdfdf5fe08fd0909U, 0xff05dafa0103f80fU,
  0x401f9fb17ff01faU, 0x705f701fefe0203U, 0xf2f6c400edfc020fU, 0xfc03effb0800fffeU,
  0xbfffd00fa0206fbU, 0xbf510fbfce10512U, 0xfdf9f3fd0404eeefU, 0x4fd02f7200df0f3U,
  0xbf0f601f1cd0becU, 0xe1171ef31ef40501U, 0x5960000058aU, 0x1404fffffd6cU,
  0xfffffb64fffffdd0U, 0xf20ffffeedfU, 0xfd4fffff20fU, 0xd1b00000429U,
  0xffffff8a00000742U, 0xffffff6fffffeac1U, 0xfffff677000005c9U, 0x6e10000160dU,
  0x62a000007acU, 0xfffffad100000134U, 0xfffffd0900000e17U, 0xfffff083fffff95cU,
  0x12200000656U, 0x49300000893U, 0xfffff0b0ffffe9e5U, 0x2afffff987U,
  0x1305ffffff69U, 0x42e00000183U, 0x21affffffe3cU, 0x2e50000086aU,
  0xfffff75e0000061dU, 0x91d0000098eU, 0xcea00000378U, 0xfffffd8000000234U,
  0xb7800000b04U, 0x6bd000005d4U, 0x1460000002e4U, 0xc3100000befU,
  0xfffff78700000785U, 0x157dfffffdbeU, 0xff0102ff0101fd01U, 0x10100ff0100fe01U,
  0x102010100ff0100U, 0x10100010000feffU, 0x1ffff01ff010107U, 0x1dffff02ff01U,
  0x101fffc01ffff00U, 0x10101ffff00ff01U, 0xfe0104fe0202f803U, 0x203fffe02fffe03U,
  0x2040102ffff0202U, 0x20201010101fdffU, 0x1fefefffe010208U, 0xffff42fefd03fe01U,
  0x102fefb02fefc01U, 0x30102fdff02fe01U, 0xff0102fe0102f902U, 0x102ffff01ffff02U,
  0x1030101ffff0101U, 0x10101010101feffU, 0x1ffffffff010208U, 0xffff30feff02ff01U,
  0x102fefc01fefd01U, 0x20101feff02ff01U, 0xff0104fe0101fc04U, 0x102fffe02fffe02U,
  0x2030101fffe0202U, 0x20201010101fcffU, 0x1fffffefe020109U, 0xffff2efefd04fe01U,
  0x103fefc02feff01U, 0x20102fcff02fe01U, 0xfc0307fc0302f506U, 0x305fdfd05fefb05U,
  0x3060303fefc0304U, 0x30402030202fafdU, 0x2fcfdfafd04030cU, 0xfdfd7ffcfb06fc03U,
  0x204fbf903fdfe02U, 0x40204fbfd04fd02U, 0xfd0205fd0203f704U, 0x304fefd03fefd04U,
  0x3050202fefd0203U, 0x20301020101fcfdU, 0x1fdfefafe030209U, 0xfefd5ffcfc06fd02U,
  0x204fdfa02fdfe01U, 0x30203fcfe03fd02U, 0xff0101ff0101fe02U, 0x101ffff02ffff01U,
  0x1020101ffff0101U, 0x10201010101feffU, 0x1fffffeff010106U, 0xffff37fffe02ff01U,
  0x102fffd01fe0400U, 0x10102ffff02ff01U, 0xfd0204fe0202fc05U, 0x203fefd03fefd04U,
  0x3050202fefd0203U, 0x20301020102fcfeU, 0x1fdfefafe020309U, 0xfefd6ffdfc06fd02U,
  0x204fdfb03fd0701U, 0x30203fcfe03fe01U, 0xfe0103fe0202fd03U, 0x202fefe03fffc03U,
  0x2030201fffe0202U, 0x10201010101fdfeU, 0x1fefefafe020208U, 0xfefe58fefd06fe02U,
  0x203fefc02fe0601U, 0x20103fdff02fe01U, 0x521fffffffeU, 0x1e0000000eU,
  0xffffffe0000002deU, 0x4d0fffffff3U, 0x45600000007U, 0xf000003b5U,
  0x307000002e9U, 0xffffffe100000003U, 0xfffffff5ffffff42U, 0x258000004d6U,
  0xfffffffffffffff8U, 0xcfffffff3U, 0x2fe00000165U, 0x1300000013U,
  0x64ffffff85U, 0x37fffffffeU, 0x900000010U, 0x1ab00000013U,
  0x2ed000001a4U, 0xd0000023bU, 0x29500000018U, 0x1580000000bU,
  0xfffffffb0000019fU, 0x18f000001c9U, 0xffffff7a0000008eU, 0xffffffe7000001d5U,
  0x2a8000006f4U, 0x19fffffff4U, 0x203fffffff4U, 0x29cfffffff0U,
  0xffffffe7000000d6U, 0xffffffe80000000cU, 0x300fefc01fefffcU, 0x1fe000202d4ff05U,
  0xf201ff000407d302U, 0xfcfefe3b29100107U, 0x1800000100ff0504U, 0xfae513fd0006fdfeU,
  0xfff9ff000201fbU, 0x113fb000302fefbU, 0x132f04080208fffaU, 0xff021400f2fdfa08U,
  0xebfd02fbf10ff027U, 0x3fb08f0f5dffbf9U, 0xbf80901e3fb230eU, 0xf80f0604fa1a03ffU,
  0x1a04fb09f8fafd0dU, 0xeeff0310faf304U, 0x35eee7ec1ffc0c11U, 0xa0de80e0706fc14U,
  0xf5dfe2f90715f81fU, 0x14f2ccfaffeef8f8U, 0xfbf903f6fefffaf5U, 0x313f7f305f6dcf2U,
  0xbe901cafa02e9ceU, 0x4fcf3e1f0fd1107U, 0xfae903def5deed02U, 0x1fd0432f50c09eeU,
  0xfa0737f3eae61401U, 0xf708150c03fff5f8U, 0x6090a040af605f0U, 0x17f60805060c1306U,
  0x8280ecfff12fa58U, 0xfd07f50cff0aff0aU, 0x51fff0704010502U, 0xf9fa0ffaf9ef0201U,
  0xfc040304fc18150eU, 0xfd0104fc11350000U, 0xfbd8f10100ff29f8U, 0x2070506030809ffU,
  0xf6fb07000403fdffU, 0x50702fdf901fd01U, 0x70300fc07fffffeU, 0xfbff03fcfb0021ffU,
  0xfffc030601f60302U, 0x30100fffffcff01U, 0xfe04fbfe0203fdU, 0xfefefefff9fe0700U,
  0xff0101ff05fa0100U, 0xfffd01f7daff07U, 0x8fcff0308f9ff01U, 0x2fc00fe000004feU,
  0x1fdfde000010202U, 0xfb03df0202fdfe04U, 0x6fc0ffffbfafbU, 0x2fbfe04fe030604U,
  0x1fafdfefb02fd26U, 0x800feff04fe063fU, 0x8fefcfffe0204ffU, 0x2fc0d03fada0007U,
  0xe3fe00fe0affd4fdU, 0x200fc324712fe0aU, 0x1f02fafb000307fcU, 0xf7e01600fc0602fdU,
  0x1fef900fd0002faU, 0x1000100fb000300U, 0x11fefafe00fefeU, 0x30701fbf201ffU,
  0x6f805fffe120406U, 0xfa0903010a480103U, 0xf6d1fdff01ff2c04U, 0xb0903ff00080001U,
  0xc010afefe020100U, 0xff0f010001000304U, 0x90701fef6fa0103U, 0xef0400ff2402f6ffU,
  0xff05ff04fef7000eU, 0xfffaf4ffff000cffU, 0xfffcfe0801f8ff01U, 0x10200faf6031038U,
  0xfdff0201e0edfa00U, 0x100030406fb0100U, 0x112305f414fbf804U, 0xf6f31400fef5fc06U,
  0xf70400f9f214fd2dU, 0x6ffeeef0802fff3U, 0xfee004fc00042cfeU, 0xf40a0900fd12f6f7U,
  0x10faedeafffbfcf9U, 0x9e9f2fff70100f8U, 0x1521fefbfaf808fdU, 0xfc0e070cf803f7feU,
  0xf901fdf5ff0afa37U, 0xf9042001fffb0802U, 0x800fef506f910ffU, 0x308060e012102f7U,
  0x12ff0103f406fb1bU, 0xfc020402fa02f6U, 0x190b04ee040000fdU, 0xfe010100fafd1404U,
  0x503fcfcfa0104U, 0xff0af9fefc000300U, 0x20702fb01f9ff11U, 0xfcfefcfffa010d0cU,
  0xf6060703020707f7U, 0x702fbfbffd303fcU, 0x7fa0b07fd0dfbfeU, 0xf6fafdf8fefafb03U,
  0x1802020a07e6U, 0xf301fa0200faf3fbU, 0x4faf20efd070805U, 0xfc02fefbfc000300U,
  0x10201f403ff00ffU, 0x500fa00fdf9fffbU, 0xf003fc0508fcf4feU, 0xf2fd050532fef202U,
  0x2fe01eb010302f7U, 0xfb010104fe061501U, 0xfdfbfe01040906feU, 0x50001fd0d02050aU,
  0x4ef0202efe20802U, 0x20405fc01eff825U, 0xf701fffdf6010300U, 0xa07f902060afe00U,
  0x10c09fdfb04020cU, 0x2ff09080e050402U, 0xf7fe02f9f9010808U, 0x7ff000bfefb0406U,
  0x7fafe0d03fffefaU, 0xf20304ff04f50718U, 0x2fcf9fe06fd0503U, 0xfeff040400b6ff02U,
  0x1f0102fe090a1805U, 0xff00fee7210001deU, 0xf306fffc09fe0102U, 0xf50401fb0b0003U,
  0xfb2e0100040103U, 0xfcf5fe00ffff03fdU, 0x3f7ff04fefdfe01U, 0x306f402fffffbfcU,
  0xfc03fd0012fdf2f8U, 0xf90601452b11fdfaU, 0x12f9fffe0a01e2feU, 0x2e5090100f9feffU,
  0xe40106010000ff01U, 0x200fbfefefd00ffU, 0xf5eff4080304fbfbU, 0xfc0603ff08a0f821U,
  0x1ffb02fd2f071401U, 0x5fbfccd10f6ffdeU, 0x140c0500f100f405U, 0xdae50d02010c0dffU,
  0x603fffe01faffU, 0xfd08fd0307fe06fcU, 0xfff80df9ff08fc01U, 0xfc06f9ff02cd0105U,
  0x31f6fe04ea04730dU, 0x306f7c5c007ff0eU, 0xe60e07fef8060106U, 0x927df08040305ffU,
  0xf9030301fcfa05f5U, 0x1f801fffcfb01fbU, 0xe8f705b0cffa00f0U, 0xe344ab0506f7f407U,
  0x12b9ff0121f4fce2U, 0x1bde071df4e4fc08U, 0xf1dc5bfedefaf624U, 0x101f6f51402e8e8U,
  0x1a0ceffef208fe0aU, 0x1b06fefb27f7e1f1U, 0x9fbfdf40506fd03U, 0x305fcf80202fb02U,
  0x4fffc02fd000301U, 0x2fe0100fffaff00U, 0x3f603fcfefd0202U, 0xfefd05f7fc0bfdffU,
  0x1f701fe01f403fcU, 0x703f9f4fdfefe02U, 0xfbfeffff0bfd03feU, 0xfa0302fdf405d602U,
  0xfdfb010a000c0000U, 0x5faff0202fd0003U, 0xfc040a00ff05fafaU, 0x400fff7fc0401U,
  0xff02000202f6fa07U, 0xfa01fa00fc3a0508U, 0xfbfc060304fcfdfdU, 0xfbf910fd00d9fd07U,
  0xdb0203fe0007b506U, 0xfa596c0d040cU, 0x240efeff0eff0801U, 0xede6310a0402fd00U,
  0x8fd0efe03feff03U, 0x2eefb03faff01fdU, 0xf7f9fa040806fd02U, 0xf401ff01eeff0ffeU,
  0x1f80402050003U, 0x400030301020400U, 0xfe000501fefffe00U, 0x201ff09fd0415U,
  0xfc020103150702ffU, 0xf9fefd01fa080109U, 0xee02fc0213f8fefdU, 0xfcf3f604f7070103U,
  0xfe0401e0fd0501faU, 0xf40ae2f90202f9ffU, 0x6f60afefcf7feU, 0x8f6fdfb0f05fd06U,
  0xfef2ff01f9f8fb29U, 0xffe09ff11fb0244U, 0x140501fefefa04fbU, 0xf203f700f40bfdfcU,
  0xfb01070805f9fd13U, 0x203ec02f9fe0603U, 0x20af90a0af6f604U, 0x3040601f3f9010cU,
  0xf1fd06ff1112f9feU, 0xfaf9f30401000407U, 0xfb03fadee801f9feU, 0xfc11e9090205fe07U,
  0x3ecfb0006fc0101U, 0x8fd0100fdfdf702U, 0xf9f71c07fb070101U, 0xfdff01ff04fcf101U,
  0x210fd02fdfe00fdU, 0xd0301040f00f003U, 0x19d6ec05e7f2f2f4U, 0xf91521fded1604faU,
  0xfe031bf10539fc13U, 0x916d50700f360ebU, 0xff052ee200fffe16U, 0xe8fa040b05fcf60dU,
  0x11afbd1eefffeeaU, 0xd0feeff7f5f701fbU, 0xeffcffff00e3ffffU, 0x801f928ff030000U,
  0x10306fefff7fe26U, 0x7ff11fdfcfe01f9U, 0x5000900fcfd0204U, 0xff04fdf8fefafb05U,
  0x106fae602ff0200U, 0xfffffcfa0300fd06U, 0xf1ee03f8fcfc0affU, 0x1ff0303fb0302fbU,
  0xfe010100faed04faU, 0xfe03fa0a030cff05U, 0x400f90a08fd03f5U, 0x3fe0403f70208U,
  0xf70906f6ff0bf819U, 0xfc010405020508eeU, 0xbfd010007fd01ffU, 0xfcfefd05fcd6fd07U,
  0x10fefef709061500U, 0x302fdf5effd0217U, 0xf502fbfc10fc07f7U, 0x804f303000e00fbU,
  0xfffd1fef6fd0000U, 0xfc4404fdfd0002f9U, 0xfdfe0507010004feU, 0xfb07030100fcfd00U,
  0x4000901fdfffeU, 0xf702fe03fd010605U, 0xfe04ff030406fcffU, 0x30701060304f702U,
  0xfdf804000700fe04U, 0x6fef3f902fbfa03U, 0xf3fa020d02090ef7U, 0x7050b0b0808fdf5U,
  0xf5fdf10809f5fafbU, 0xfe02fc04f2f80a03U, 0x902f606f4effcU, 0xfe03fc080d0101f4U,
  0xeef60804fd11fe03U, 0xfefe0cfa08fe07fdU, 0xe701ff1d1bfeff09U, 0x13f4fe0d2ffef402U,
  0xfffd0bfefefefaU, 0xe8f9000202012205U, 0xf8fd0101072bfcefU, 0x2f2fdee02feff02U,
  0x1ee02ff1ed31a00U, 0x8051100ebeb040aU, 0xf7fc050300030dffU, 0x5fc00040a02fd03U,
  0xfe02010cff1400fbU, 0xf900fcff01fcf701U, 0xfd00fbfd010c0200U, 0x2ffea11fa0404U,
  0x70200fef20208U, 0x6fe08ff05f403e7U, 0xfa1900f80101ff03U, 0x1fc04fafd0c01fbU,
  0x3fb030108090707U, 0x403f2f5210103U, 0xf9d7fc0009ff21ffU, 0xe02fd00ff0c0600U,
  0x6030101ff0100feU, 0x3fe0101fd03ffU, 0xf030705ffeff901U, 0x5faf2f6fe02fb03U,
  0x2fcfbd9010800faU, 0x400e9fb03fbfafbU, 0xfdfdf00af301080aU, 0x4f902fafb040406U,
  0xbf8fdf5f7060715U, 0x60500ff0afd0225U, 0xfa11fc01fd02fd04U, 0xfd02f101fc0301feU,
  0xfffefd0000fd02fcU, 0xfe01fd05fbd60204U, 0x8120d0403fbfd00U, 0xf907fcff0100fffeU,
  0x3702fc0300020001U, 0x1010300000002ffU, 0x1043e1b0ce6fef6U, 0xf2f9f7f3f6f9fc0aU,
  0xb07280700fcffeeU, 0xf318fe09fb0af004U, 0x5fee41effeffe15U, 0x1111fef3ff0729ebU,
  0xeee412dae6f90b14U, 0xfd0bf2eef7fff8f8U, 0xfe0c01ec11ff0e0cU, 0xfa0afaf902fa1213U,
  0x50804f00005fdfcU, 0x2ffff006fb010300U, 0x700040107020501U, 0xf711fcefff07f3f5U,
  0x11101fcf3f801ecU, 0xfefd13f4cf1403f0U, 0x2030008000003f5U, 0x605f5fffff40300U,
  0xf9fefc03cd0600ffU, 0xfe03fd150408ff09U, 0xdd05fffce9fbfb05U, 0xea030c050200fb02U,
  0xf8ff05fc01ff02ffU, 0x40300fc01fefcU, 0x1910e028f836140eU, 0xfc0d00d2fff70106U,
  0x108f813f1e003e5U, 0xf4d5d2ef0c0629f0U, 0x13f2edcef7160ddeU, 0x7edfd2439fde200U,
  0x1ae205270d0e03f1U, 0xe90d0c000f0110f0U, 0x200ff03ea04fdf9U, 0x1aff0106e701c301U,
  0x1fffaec040401fbU, 0xfe040d02fb0c05feU, 0xf90cff0909f9fafbU, 0x502010cfdfd00e0U,
  0xf9fc06021e1103f4U, 0xeefcf8fbef40ff0fU, 0x802000301fc0214U, 0xfdfdfafbfbe60109U,
  0x64fe0100ecfdd401U, 0xfc070e0f030b07b9U, 0x9d0801fc2805ec01U, 0x70403fbfe0602feU,
  0xf9ff14fffcfe050fU, 0x90106fcfe0702f9U, 0x16f910fd03ffef02U, 0xf6f6f8e8010bfa00U,
  0xfe0202fe0a07f5d6U, 0xf5ff0afb00f7f0f3U, 0xfefdf4efe10af40bU, 0xf7f4fd01fbfafdfcU,
  0xf4f8fa0206f6fd0bU, 0x102ed080000fefdU, 0xcfb0804ff01fd05U, 0x1fc020602f0fd02U,
  0x1efefd000208f3fdU, 0xfe0401fbe9fffd0cU, 0xedfdfdfd0a01f401U, 0xb02eb030405fefdU,
  0xfefdd403fefa05feU, 0xfe52fefbfbff0200U, 0xf509fefa01ff0202U, 0xfd01ed04010a00feU,
  0xfd00fc00fefefffcU, 0xfc02fc0804d10101U, 0x51809020900faffU, 0xfc0201020301ffffU,
  0x32010501fd0105ffU, 0xff03ffff030201ffU, 0xd200f70f0cfef301U, 0xdeff00ff13fdfb0cU,
  0x1fe05080114fdf1U, 0x3fb0b04fffa0ffeU, 0x2f7fcfafcff06ffU, 0x4fb02e029fdf41fU,
  0xfce9fc05fae00000U, 0xfd010dfc0fecfe14U, 0x2610fc07070305feU, 0xf6f904041a0134fdU,
  0xff02faff03cf0302U, 0xfa0aebfbfefdee02U, 0xfef7f501fd0501U, 0xfffcf80efeef16U,
  0x130001c2fff903U, 0x14010f051dc60ef2U, 0x108fc0507030009U, 0x207f6fbf1fd01U,
  0x250100010001ebfbU, 0xfffb07f213f401bcU, 0xd600fcfb0602ffffU, 0x1f209020201fefdU,
  0xf8f84efffdfcfe05U, 0x2dffefeff0000fcU, 0xfa0d09020201feffU, 0xf800f3ff0102fffdU,
  0xfd04ff040003fefeU, 0xfa0001f9d3ff04U, 0xd0e080802fcfefeU, 0xfbfefcfd040302fdU,
  0x3801fa0002fffc03U, 0x1000001fefefdffU, 0xd409070af8fefef7U, 0xf10b0901f602070bU,
  0x24515f60101f8f8U, 0x9f2ecfe0803ff01U, 0x801d3fae9f3f906U, 0xf7fbf8f3fdd9eb04U,
  0xf013ff05f5ff06ecU, 0x210bf8a10203e2f9U, 0x9fc0b1c0703fd14U, 0x3fcc60ffc02f5faU,
  0xfe160b1009070cf2U, 0xca1efff0080bfef6U, 0x810e40debfbe622U, 0xffddf0fe0ef2f901U,
  0xf8edf3f7000706fcU, 0xa0607e7f1f9050bU, 0xfff7000b05fb0000U, 0x3ed1cfffd0903ffU,
  0xfe05fd0500ff0202U, 0xef202ebf5d30104U, 0xfd1de600fe0309fdU, 0xff04fb04fefb0602U,
  0x900f80000fe0204U, 0xfdfafbfff5fefd02U, 0xf6e400f5f6050dfbU, 0xfefe0802f61702f9U,
  0xfdfb0107f9ecf8ebU, 0x305030eee13040cU, 0xff10ff070a07f3fbU, 0x105fc0efdecfcfaU,
  0xe30bfe0203030102U, 0xfff70201070507e9U, 0xf5f0060915fe15f7U, 0x60307f805fc0302U,
  0xfdff04180011f8f9U, 0xfa09fd08fdfcf40bU, 0x2fe06f50600f6ffU, 0xfffe02f9110103fbU,
  0xfa1800fc01072720U, 0x1804f70506f70fecU, 0xfbe605f7f607f5faU, 0xffe4530bfe1e0630U,
  0xe41bf7e967f707e8U, 0x8110693b2a6f6e5U, 0xfef7cbdf2912f106U, 0x740afa09f806f315U,
  0x3c06e5fd0deefdf8U, 0xee09f710fa05feU, 0x270408221ff3e0ecU, 0xf6e802fff21fee21U,
  0xfbee0a2602faf4e8U, 0x8f0d7fb07f3ebfaU, 0x608080cef0a0400U, 0x2f702f2eefcfe00U,
  0x105f6f30706f30dU, 0x6efd5f5ebf4f50dU, 0xfefefe00fe02fdfdU, 0xfdfd0310f9adfd11U,
  0xff02fcfc11060e09U, 0x400f7f811fc0303U, 0x3f4fdeb0700feU, 0xf9ed08080509fffeU,
  0x1fe02fdfe04ffU, 0xfa15080102ff03fbU, 0xfde5ff000102050eU, 0x3ed00fb030303fdU,
  0xfd06ef05f4fbf4eeU, 0x4e70606f933050cU, 0xfcf800fe0afff9faU, 0xf7130709f7050304U,
  0xd8f504f40302f906U, 0xfcf2fff7f9000903U, 0x1906fde0c4fcd510U, 0x2fd05170cf8f10eU,
  0xfc1a1ff5f7fd03c2U, 0xeb1e1401fff7d3fdU, 0xfa0f2816080ff4U, 0x20ffbfb16f6fa00U,
  0x901fae0fbee00fcU, 0xdf9f53c4dfa06f7U, 0x700040af9ecf3fdU, 0x2f3effa0305f905U,
  0xfe010305ff0afb16U, 0x2ff09fd02f5f3fdU, 0x5fbfae5f3fdff04U, 0x7f706fdfb0202f8U,
  0x4fc02ee05fa00fdU, 0x8f6fafd01fcf3f4U, 0xe103ff0bfe1f1cffU, 0x13010d190802fe03U,
  0xfcff02f8f506fdfcU, 0xaed0d05fe0621ffU, 0xc0211110002fbf7U, 0x40b091e0d14fa13U,
  0xc060c091d000eU, 0xfe02061700f50d17U, 0xff9110af10701fbU, 0x706fb000600dcfbU,
  0xfb00fc0b04fd0002U, 0xbf1f5f80800f602U, 0x301f8fdfbe90403U, 0x7fd0104d804fa16U,
  0xfc07fc04ff080201U, 0xf200fc02153810f7U, 0xfa2000e8ff160101U, 0xfbe4dff705d307eeU,
  0xcff808d91ee7e6fbU, 0x31904f117f5f5U, 0xb51adc02160ef3ffU, 0xf613f8ed0b2736fcU,
  0xd27d32af7e90505U, 0x12c1121ff509edf3U, 0xfef7070605fe040bU, 0x3f3fcff090ffd0eU,
  0x308fd05fdf7fc0aU, 0xf705f606feeefdfbU, 0x305f80dfe08f403U, 0x7f3f60e01d4f105U,
  0xe204faf90b0302f7U, 0x3fa090a0200f4feU, 0x4050002fbfffffeU, 0x30502fe040107fdU,
  0xfefff304f80103U, 0xfe0400fe0405f804U, 0xfd0703070109fb00U, 0xfd040004f0fafe01U,
  0xfe0003020ff705faU, 0xff01fb00fa0a070eU, 0xf4fa07f701d5f600U, 0x7f90033fa050400U,
  0x6000ef5fbeefe32U, 0x60bffff03f9f7U, 0xff000afcfa05fb06U, 0x9fdfd020004fe04U,
  0xfd0af9defefd0620U, 0xfe04fbf9fe03fe0dU, 0x6f9000202fe00fcU, 0x4050202a9fd01U,
  0xeffffbfefb092f04U, 0xfb00fb194006010bU, 0x18040efaf3fffe00U, 0x7f91102ff030100U,
  0x10fe0c03000003faU, 0x106ffff02fdfffeU, 0xfc0501030fff0c00U, 0x301050100fe03feU,
  0x105f7fd03fffeU, 0x4000501ff06ee01U, 0xff05020702f5fb04U, 0xfe0400ee0202fa01U,
  0xfafc01030508f7fdU, 0x1a0206051aff0b09U, 0x3f6000000ff0209U, 0xfcfb0105ffdc020fU,
  0xefe0001120201ffU, 0xff020014f1000113U, 0x20a06fa08040102U, 0x204e501fe0dfdfeU,
  0x602cffffdfffe02U, 0x153fefffd02fff9U, 0xffff01f702fd0400U, 0x10401ff02f5000bU,
  0xf90004fd1403f704U, 0xfcfcfffef6000507U, 0xf704fd0303fbfafeU, 0xf10bff00fe060cffU,
  0xffff00fbfe03fefeU, 0x3f3020301010000U, 0x5ff0301fcfcf7f4U, 0x1ffeffbfe3cfd01U,
  0xedfe010a02fd00fdU, 0xfd0103f7ea03fa0fU, 0x1cf8fd04db03ff05U, 0xf5fdfd0003f400fbU,
  0xeffdef0002fe00feU, 0x1d6f803fefffd05U, 0xd1fe160ef801e5f8U, 0xfc07f1f4fcfce6ffU,
  0x2110dfe00c10316U, 0xf4090efd0100f6fbU, 0xbebd6e805fd0803U, 0x70403ff0a0104fdU,
  0x7004207030d1eU, 0xec03fb010df201f0U, 0x1cfc0aebf8050d04U, 0xf20914fcf81cfcf6U,
  0x1f8faf4f2f7f2fcU, 0x4f8170e02f70101U, 0x400ffec09f808faU, 0xd140e05031613f5U,
  0x1ef0e05e711f335U, 0xfff30201fefc00eaU, 0xf51802fe0102fffeU, 0xfcf605fefcfc02fdU,
  0xfd0601faf801fd07U, 0x5f7fa0affd00400U, 0x81f04fd02021900U, 0xfcfe0000ff06fffeU,
  0x31040302ff020201U, 0x20a0101fcff0100U, 0xfdf20f0412fe5df5U, 0xf417110509fb06faU,
  0x70005e5ff0ffdfbU, 0xcfd24fe0e03f2fcU, 0xfc09fdfc00fb030dU, 0xfbf501ea0501f7f2U,
  0xfaf0f4ef14f6f0caU, 0x11ffec0a47fc4924U, 0xfd27f017f9fa18feU, 0x723ffe5ff0bfffcU,
  0x301f1f90612f12bU, 0x10f6de00ef080610U, 0x30d0ce8010cf704U, 0x3fe020bfdf8defbU,
  0xf2f9f92e0005fee1U, 0x18f7020200fd0916U, 0x1a1bfd00fff80203U, 0xfbff18f9fc0705ffU,
  0xfdfcf9fa0016fd15U, 0x2fb26f800fa03f8U, 0x30e00f1fd02f9fdU, 0xf4f7050a040502f9U,
  0xf3f5fa0ff604fa18U, 0xfcf6020102ff02fbU, 0xf7f5e705ee05fc0eU, 0xd01390802050510U,
  0x138fa0ffbee0303U, 0xf021e7effeedf5f2U, 0xeb34fb011c18f6U, 0xf1fdfd12e500eb0fU,
  0x701f00613e212f5U, 0x25f629f8280ee40bU, 0xd80afc0806f7fb00U, 0xfbf9fbfe08000a01U,
  0x4f9fdf3fd130106U, 0x5051405ff0004ffU, 0x5fe0004031c0901U, 0x3fe001105f9fde7U,
  0xfae504fc15f000fcU, 0xf7fdf301e907ee34U, 0xedf60806050110feU, 0x2ff04140bfb02U,
  0x2040e0013ffffU, 0xf901feff02fcf501U, 0xfffefffa080efd01U, 0xfffffbe811fb0304U,
  0x10dff0101ee0306U, 0x801000007f803e5U, 0x4f07f908d103fb01U, 0x2d04ebfe60f80d03U,
  0x106f8e9fdb2fffbU, 0x13fae2fefc06f4ffU, 0x30700140abdf9fbU, 0xfffd01fcbefdcb1dU,
  0xfc03fbf6022de7e0U, 0xf1fc06fa1b222be2U, 0xfa00fff7fafcfffdU, 0x6040301030cfefeU,
  0x4020428fffa010aU, 0x3290205ff03faU, 0x2000aeafe030300U, 0x400040206fb02f6U,
  0xfd01080205fc01e8U, 0xfffbf7fd0100fcd6U, 0x30103fd130006fcU, 0x2ff02000700fa03U,
  0xfc05fbff0b02fbU, 0xfb00f5ff01ffff00U, 0x10203fafd04fdfdU, 0xfffefeeef9fbfe10U,
  0x106fef70705ff07U, 0xfc02fe0005f9fef7U, 0x1210fe04051bf203U, 0xf90307bd0afcfb05U,
  0xfb090008041cf6f0U, 0xff09f1f801fb0709U, 0xfb080c0008070b05U, 0xea0202f6edfdf8feU,
  0xc13fe2f00fb00b7U, 0xfdfc0afef4fcf9fcU, 0x7fbfe0604fdfeffU, 0xff0309ff04df0006U,
  0x6ff0300fe081903U, 0xfc00fef3ea060117U, 0x60101fdfc02f206U, 0x6edfd0407ff02U,
  0xf6f9d301030901fdU, 0x434020003ffff05U, 0xe0e5fdf6fc0f09feU, 0xf90900faff1a0202U,
  0x2ff00f0fde200d9U, 0x200fbfeed080c0cU, 0x113081c0602eb01U, 0x20cf60202def700U,
  0xe1040800070507f0U, 0x5f5fe030900fcfcU, 0xdae8feef020600fdU, 0xf309f5f9ff07ff04U,
  0x30506f7faf810e9U, 0x14f9dbeffdfcff00U, 0x13e40119f6000b04U, 0xc0bf8f9ffe6f502U,
  0xfe0a08fa0509fee3U, 0x7edfffa05fffcfbU, 0x4fc0001fffdfc00U, 0xfd03fbfefcf3fc02U,
  0x4050300fb003503U, 0x10303bcfaf7fdf4U, 0xfcf705fffffeed02U, 0xe18ef03ff000401U,
  0xf6ff0effff01fd04U, 0x3f1fdff02f9fd01U, 0xed07ff0402fef2feU, 0xf30002042efff103U,
  0x201e9fa01fff6U, 0xfbfe040302061501U, 0xfefefefd070c02ffU, 0x30002000cff050aU,
  0xffef0005f1df07fbU, 0x4fd0301fcf1f81fU, 0xc00f901db02f701U, 0x2803ffffef00ca04U,
  0xfe05fbf303f8fff5U, 0x20004ff0300faf3U, 0x20612feedf807U, 0xfe050616f4fdeee5U,
  0xfe06ffff181b02eaU, 0xf0fffffbf243fa0fU, 0xafd001108f3f501U, 0x5faf4fcfff53c00U,
  0x5fe0016fde90600U, 0x60708fdfaf4f2f9U, 0x6f1f613ee0113feU, 0xf9f9f7ebfbfdfd0bU,
  0x502f7eb06f70300U, 0xfc04fbfef9c80313U, 0xfbf9f2fb0bfefbf3U, 0xfb11f8faff0702feU,
  0x10401f7fffc0503U, 0xf90d020802020704U, 0xfe0708f5fbe7fdf2U, 0xa0505f7fff903feU,
  0xfff609fffbfbf4f7U, 0xf0408fd0602fafcU, 0x1d080be7eb2cf802U, 0xf9f601dfe9fc0c01U,
  0x5071ffff11906aeU, 0x700f90403ed01feU, 0x4e6f60208f916f0U, 0x1fe03080305f5U,
  0x6f0ff05f3fafa04U, 0x7fcf4ff120cfbfbU, 0xb91401f4fc0f0003U, 0x80be900f7f4fc00U,
  0x71212060feb29f4U, 0x1504d4f10411f9f5U, 0xedc090e13091703U, 0xe0cf10400ebd902U,
  0x12230afb05fafecdU, 0xfefa07fffc06f0eaU, 0x516fc0f01ff0fffU, 0xbbf6fb0825f904ffU,
  0x1fc02ee00ed01f7U, 0x1feee040afff203U, 0x302f8f604190400U, 0xfd04fff302fddf46U,
  0x505fd81bff509U, 0x7090f03213024dfU, 0xafcfcf4ff0002fdU, 0xfe03f9fff906db06U,
  0xff0c0cfef80bf90dU, 0x1f60103010002U, 0xf80a070c04f4f916U, 0x104fcfafb02010eU,
  0xf205fb0afcfb07f0U, 0xf7fdfbf2094915fbU, 0x15fde30415fefaefU, 0xfd152bfbee02fffbU,
  0xfdda0ff906fe0000U, 0xe9c0fd0209fafafaU, 0xfc091b0207120146U, 0x6ec0b06f70112f5U,
  0xf901060201ed0d06U, 0x39071b19f703d1f2U, 0xf50900fdf9fa00fdU, 0xf0704f815010900U,
  0xfff8061502100200U, 0x4f809ff00040702U, 0xfc030e01fbf6fffeU, 0xff04eb00171aU,
  0x102fc021a0500fdU, 0x303f4010800f715U, 0x1016f40d0afbff01U, 0x509f0f60100fb0eU,
  0xf401ee05fc23f711U, 0xcfedef800f506feU, 0x4ff06f5fafe0509U, 0x1fffef9f9fbf6faU,
  0x8fd010ffbfbfeecU, 0x7f5fdf706f5eefbU, 0x70100fafc06fd02U, 0xfefc04f5ff0204ffU,
  0x10101fffe0904edU, 0xfd00020003fefdfdU, 0xfbfd02020002ffU, 0xff00000203020100U,
  0x1fe00fcfe010002U, 0x302ff02040200ffU, 0x180e030bec0302fdU, 0x2403ff00e8f53dffU,
  0x3fbfbf003d704f3U, 0x30911fcf8fdfaf6U, 0x4fbfd06fafa0c07U, 0xfff5fa1100feffdaU,
  0xff04faf6240c04f5U, 0xf3fdfefae4c3f007U, 0x14fd08fb0320fefeU, 0xfafeffe8f701fa02U,
  0x10104f9ff07fee1U, 0xf802000503fbfe02U, 0x4f8f500fd000804U, 0x3040405fe0202f7U,
  0x2f30206f601fcfeU, 0x100fe0301fefcf8U, 0xe3fb010710040200U, 0xb02f5020c050900U,
  0xfcffff09fc2aff02U, 0xf401e8ff0300f906U, 0xfcfd010a040cffffU, 0xfd01fff100f70a15U,
  0xff120307f8f0f91bU, 0x9fd01fcf9f60aefU, 0x3fffe01f9fef2ffU, 0x702fffc01fe0101U,
  0xff0104fe0000fffeU, 0x300030100fe06ffU, 0x2fd0203010001ffU, 0xff01ff08fe00fe04U,
  0x20100fffd0207fdU, 0xf5fffc00f000f5fbU, 0x131ffe1003edfafeU, 0xf702f400fdf9fa0eU,
  0xf8fefb0b0012fd0fU, 0x7fcf4f407f4f7f5U, 0x7fefef8f3040d07U, 0xfdf805f5f30505feU,
  0x1308f9fd03fbfffeU, 0x3f7fffcf7fef900U, 0x2520fb03eafd0e03U, 0xfb04f6d3fe000707U,
  0x5fc14a4fffafff0U, 0x15009600f806f8f0U, 0x1010fe12f2fbfef9U, 0x7f9fa080ffaedf0U,
  0xa0ef303ee0f0f36U, 0x2802fa0d1d070d37U, 0xd502050bf6f5deffU, 0x14ffff2807040d01U,
  0x70d44eefdfc09d1U, 0x2fc6ef608fbebf9U, 0x6e70c2d0adc25ecU, 0xec0804f3f9fd1206U,
  0xfff404c908fffbbcU, 0xecfdfe04f3060bc9U, 0xfbf807fd04c9f4fcU, 0x8f2f23603fe0203U,
  0xfbfe0afbf7f60638U, 0xff0013f4020affffU, 0xfa0805e2fdfff1ffU, 0x3f707f2fa050a0aU,
  0xff01fed800f50312U, 0xfcfafb0000010fU, 0xffc060207fcfdffU, 0xfbf5fdf8050c03feU,
  0x2fd05250503fefeU, 0x7040dfe0101f301U, 0xf801faeff7fefdffU, 0x1fcfdf9f9fc03f9U,
  0xfefffbf803fbf4ecU, 0xfcfefbff0405fbe9U, 0xf9fafd030a0703feU, 0x13fc02030b07fc00U,
  0x2ff0016fe1203f9U, 0xf80501fefcfcfaffU, 0xfefb06f3ff06fdf9U, 0xfefe02f00902fef2U,
  0x506020003fdfd0cU, 0xa00fafffbf5f9eeU, 0xfdf904f000fffb00U, 0x4e718fcfe050100U,
  0x100fa08fd02fdfdU, 0x19e201fb0504fbfcU, 0x705e304f9fb03feU, 0xfdfcfa0001f8f307U,
  0xfd01010605fe03U, 0xc0600ea00fef102U, 0x340df2f2f00af003U, 0x9bfbf408f809eefaU,
  0xdf9f514fddaff11U, 0x2fcf800030103ffU, 0xf9080205f8f20605U, 0xafb08edd8ff0909U,
  0x1f3faf6e50e16d8U, 0x131070a030a1cU, 0xf9f9faf6fff90100U, 0x1f9030803fefe02U,
  0x1fffd0001fafd08U, 0x606fb08fbd50200U, 0xff1000fef003f406U, 0x308fc03ff010000U,
  0x38fef2fefdfcfcffU, 0x1f5fffe050101f8U, 0x9f9fb0602ff00fdU, 0xfc04fa03fdc4fc06U,
  0x160300fc0c061cfeU, 0xfefcfedd1b00ffd7U, 0xf5fcff00f8fcf2fbU, 0xf7f30b04030402ffU,
  0xfffe2601fc0001fdU, 0xffe30201fb0002fdU, 0x200bfe03e504f101U, 0x310004fde4f635fbU,
  0xfbfef9fcfdc902f1U, 0x60709f6fa00faefU, 0x7fe0410f7eb0801U, 0xfff30118f0faf8e5U,
  0x601fff7231501edU, 0xf400fffddbc8ef12U, 0x1217010909f404ffU, 0xf601fb12f9f50408U,
  0xf6fdf709070cfc0fU, 0x600efed08efe7f2U, 0x8fd00f9f8010601U, 0xf800f2f50b0302U,
  0x150afb0404fcfa00U, 0x3fcfefdf90201feU, 0x2f8010814061affU, 0xf205fe0dfd0205fcU,
  0xfafc040cf61004feU, 0xf4fdf1ff01fefb02U, 0xfa0200f5030afe04U, 0x3fdfeef0bff0afcU,
  0xfc120108fe06d80cU, 0x901020408ff04f4U, 0xf1eff4d9ff03edfcU, 0x2e205090d0efafdU,
  0x5f8f8f2ffe906f6U, 0xc00f90201f8ed01U, 0x7f90500fdfb0407U, 0xfb0af4e3eeff0cfbU,
  0xf8080007fef4fdfaU, 0x5ff12f703010404U, 0x21fd0b06f902f700U, 0x600fa0507fb29fbU,
  0xff1005e70403U, 0xcfbf8f700fcf4ffU, 0xcf7f7fff8e90605U, 0xf9fb03e102fd06U,
  0xfa0400040a0c09fdU, 0xfbfafbff0aeb07f5U, 0x4ccf6ebfffc05e3U, 0x702011a11fe01feU,
  0xf002f00917f9ed0aU, 0xfcec394df9f8e1U, 0xec120105e80aecfdU, 0xdfdc3906f6efe0fbU,
  0xd081bec01f8feecU, 0x16e600f40202f30cU, 0x13f5000805fdf402U, 0x6fff0f8fa3afefdU,
  0x2ff00050cfeeef3U, 0xfa0011fddd0600faU, 0x207f4f5fbfded04U, 0xf7f8f7fc01f806fcU,
  0xdeeefaf8feff0302U, 0xfcf1f3fc00030007U, 0xe6ea232913fd0bd2U, 0xf0f7ebea1c091210U,
  0x120a1afd0707f501U, 0xf63a0b0f05f901e0U, 0x4f002f7f2300d10U, 0x14fb00f7ea080902U,
  0xd20ea032a001009U, 0xdeffef0b09090ef4U, 0x9fbfd01f1fcf3fbU, 0xfb07f800fbdaf71bU,
  0xf4fd0b0dae03f00bU, 0x4f6e80110f600U, 0xfb10ff10dcf8effeU, 0xbe0207fc08f50ff8U,
  0xedfa091703fd0103U, 0x304000e0ef80504U, 0xc1d000703fefdfeU, 0xfcfa0ffefdf10501U,
  0xfb0600fefc170212U, 0x20204fd11370000U, 0xfaddedfc020022fcU, 0x3020201ff080203U,
  0xf4fd0001ff0602ffU, 0x204ff00fb000004U, 0xffd0204010038U, 0xff0b06010303fff2U,
  0xf8f7fcffe2fdf4f9U, 0xc08fe01020000ecU, 0xeff907fe0dfc0906U, 0xd05fefbfff303feU,
  0xfffcec03fd03fcfdU, 0x5ecf5fd0500f9feU, 0xfffffca100001411U, 0xfffffb8900001ad0U,
  0xf4b00000224U, 0xd940000095aU, 0xeba000003adU, 0xfffff631000010f0U,
  0x191500000984U, 0x3ff00000d4cU, 0xb5a00001be7U, 0x139d000025faU,
  0x112100001f21U, 0x48d000002ecU, 0xacc00000539U, 0x124700000978U,
  0x1440fffff154U, 0x14430000127bU, 0x119d00000f54U, 0xbde00000ef3U,
  0xe54000006e3U, 0xe2c00000f47U, 0x1aae000019f4U, 0x2e10000004cU,
  0x1e79000016b1U, 0x13e100000c6dU, 0xfffff7a200001012U, 0x1107000016efU,
  0x184b00002657U, 0x1676000011bbU, 0xffffecd9fffffb2cU, 0x21f4000000a2U,
  0xffffef7f00000eccU, 0xffffdbf100001a22U, 0x1c54fffffd4fU, 0x77600001a8eU,
  0x164500000b8eU, 0xd8a00000669U, 0xde900000a17U, 0xfffffac300001373U,
  0xffffe2f100000f6cU, 0xfffffc50fffffc0aU, 0x13f3fffff323U, 0xa5800000778U,
  0xb1800000fcaU, 0xc2100000805U, 0x2f600000224dU, 0x10d5000016f3U,
  0x119b000005b8U, 0x106d00000f92U, 0x55a00003441U, 0xfffff8cd00000243U,
  0x1092fffff7b5U, 0x120700000cb9U, 0x8a600001663U, 0xe4d00001a2cU,
  0x136cfffff918U, 0xe2600000e4bU, 0x16b000000acdU, 0x16d500000d18U,
  0x137c000020d1U, 0x24400000bbaU, 0x65500001d3eU, 0xca6000012ceU,
  0x1f90fffffb71U, 0x100700000358U, 0x9fb0307fb0106fbU, 0xfb03f9f0fbfd0007U,
  0xfffffe0100fd0808U, 0x506fc040009fef9U, 0xfffd07fe06fcfd01U, 0xfcf8fbffff0202ffU,
  0xf8f802fe0afa0dfcU, 0x2f709fd0bff0404U, 0xfcfff90601fefef7U, 0xfd04fd06f702f9feU,
  0xf9010cf90104ff00U, 0xfe02fefe010804ffU, 0xf0f9f803010500faU, 0xfc0bfc000dfd0007U,
  0x60912fb0003fe03U, 0xfff9fefd0afff902U, 0x2401f72af70318e6U, 0xdfee8f500f4fdfeU,
  0xfbfb09fffdfb0020U, 0x1cfee604fd08ef00U, 0xfdf920dff2fbf7feU, 0xf3fff801f40005f8U,
  0xfcde02fd2ffe0806U, 0xf10101fef9030804U, 0x2fffd01f7f6fdf5U, 0xfb000500e702f8fcU,
  0xe8fcfbf802f2fe00U, 0xfc04fa0afcfd1bf1U, 0xf201e1ff02f90200U, 0xf51dff00e4f0f801U,
  0x2df10ce3f5f8fe22U, 0xfdf8faff20feeffaU, 0xb060007fc0007fbU, 0xfa01f70c04fe01faU,
  0xfb03fe00fe03f908U, 0x8fcfa050308fdfdU, 0xff0609fc03fdfefaU, 0xfd08fa02f30105ffU,
  0x4f902ff0b07fefeU, 0x1130afef900fc03U, 0x3fa09fa0201fdfaU, 0x1fb00faf8030a04U,
  0xfa0009000104fd00U, 0x4fc1503f806fdU, 0xfdfdf60601f60305U, 0xfb0bfd000af600f8U,
  0x7ff01faff030204U, 0xfb0a01ff0801f701U, 0xfde5f8f7f802fffcU, 0x182dfef9e0f5fb26U,
  0x1f80b0102f81efdU, 0xfd26fc09fdfcfffcU, 0xfeebfffde7fdfd03U, 0xf7e5f7fb190002fbU,
  0xf7fc01fff1e6fe04U, 0xecedfefa1f040af9U, 0xf3f1df1dfdfafdf2U, 0xf51a0623fe00e4fdU,
  0xfbfcebed0129f605U, 0xf901fbedf01f00fdU, 0xeb0500ff01fc01eaU, 0xfbfdfc033609fe21U,
  0xfae211fdfafcfdffU, 0xfde4fefaffff11f4U, 0xf8fac0e8281200fbU, 0xc5f2fb230032d5fbU,
  0x16db9218172101feU, 0xfcf8f51cd8d4f5b7U, 0xf4e7f2f6ebe10cc4U, 0xe0fe3510031ba3d3U,
  0xdcfa1d1af4ff261aU, 0x54f91e2dfa0b1ddeU, 0x2ecffdfbc9d8fdf7U, 0x3a0214fcfb15f8a6U,
  0xf91681241ce92915U, 0x22c13500ed00fddfU, 0xfda8fa24132011fbU, 0xf3ec1f10eec131fcU,
  0xe0dd06fb32f6c803U, 0xe6f02aee01eff64cU, 0xfc21f7f8000200fdU, 0x14edfeff24f7f8e0U,
  0xf4f70403f801e1fdU, 0xfde4fb0dfd00fbfdU, 0xfb2efdfc2bf9fefaU, 0xf51cf902e90a00f7U,
  0x2dfb0501f619ff06U, 0x5080afee804fef8U, 0xe922e8f8f8fd0fU, 0xffe508e0fd032bfdU,
  0xfafeebff02e5f706U, 0xfefcf51128e0fef8U, 0x2002010305f70119U, 0xfcfb0205dc03fee6U,
  0xf740e9fbf4fdfffdU, 0xf52b02fc0001f0fcU, 0xfbf90002fb02f90aU, 0xf8020a0ef900000aU,
  0x20300fefe07fbU, 0xf90c080001070507U, 0xfefcfb0afffcfa01U, 0x6f9fa000bfe04ffU,
  0xf605fefffafafdfdU, 0x2ef05ff0a00fb01U, 0xfc06f908fffdfffaU, 0xfd0701080702fa0cU,
  0x80001f9020afe01U, 0xfe06fdf1ff08f906U, 0xfdfd060100f503f9U, 0x9fcfd000ff80008U,
  0x20300070102ff00U, 0xfcf8fcfef90011ffU, 0xe400faecfd03e923U, 0xdfb20f000f6fbffU,
  0xf8f80c04f8fb02e1U, 0xe7fd270600082003U, 0xfcf6eb2afcf8f9ffU, 0x37fff9fc0808fffaU,
  0xfe240101e7fe0f04U, 0xfbfc06fafd03f72bU, 0xf203fefdfdf3fb11U, 0xfa010bff1f04fd09U,
  0x2102f9fe04f9ff05U, 0xf8f7fcf5fd00e629U, 0x50324fe03f705ffU, 0x1ef1ff01eadcfb01U,
  0x1ecf61dfaf9f8dcU, 0xfafdfff9e40216f5U, 0xfa0805fffe02f90aU, 0xfc000dee08ff00f9U,
  0xfe02fefffe02f9f9U, 0xf9f70b0102070507U, 0xfd0dfb0b09fbfafeU, 0xa08f700fcff06ffU,
  0xb09fffffe080fffU, 0xfe1906fffa00f802U, 0xff0309fa0100fe11U, 0xfef904fa09010910U,
  0xa00080202fcfe02U, 0xfe05ffff03f9f908U, 0x11040b0303060008U, 0x9f9fe0104fb01f7U,
  0x104ee08010201feU, 0xfa0efefcf602f9ffU, 0xffffffdafffffe88U, 0x453ffffff3eU,
  0xece00000085U, 0x4dffffff7bU, 0xa34ffffff62U, 0xfffffee10000044fU,
  0xfffffe62000003b4U, 0x97c00000142U, 0xfffffead000000b2U, 0x44d00000326U,
  0xa1bffffff46U, 0x7a5000009a2U, 0xffffff8000000b20U, 0x6280000094cU,
  0xffffffcffffffaadU, 0xf90000001fU, 0xb0300000fc6U, 0x6e00000bf9U,
  0x19dffffffd3U, 0x79e0000033bU, 0xa6a0000074bU, 0x22fffffe2dU,
  0x22e000003bcU, 0x24300000016U, 0xfffffd6afffffd76U, 0x1ce00000070U,
  0xffffff5effffff8cU, 0x4e9000001fbU, 0x203000002caU, 0x4300000078U,
  0xfffffc5ffffffeecU, 0xffffffd00000040eU, 0x6f3ffffff89U, 0x9a200000d6aU,
  0xd1ffffffceU, 0x2b900001132U, 0xfffffee8000007d3U, 0x82ffffff98U,
  0xfffffdbdfffffff7U, 0x15effffff26U, 0x394fffffedcU, 0xfffffcdb00000220U,
  0x11ce0000074aU, 0x65ffffff16U, 0xa8000004abU, 0x23b00000041U,
  0xfffffee80000021eU, 0x1ca00000c14U, 0xfffffe05ffffff89U, 0xffffffdd0000044dU,
  0x68fffffef2U, 0xeb00000d1fU, 0xfaffffffc7U, 0xffffffd800001c0dU,
  0xfc0000002aU, 0x30c00000157U, 0xa84ffffff7bU, 0x200000039fU,
  0x17700000228U, 0xa2000000e5U, 0xffffffabfffffa9bU, 0xffffff1a00000484U,
  0xfffffddc00000645U, 0xa8f000000eeU, 0x2000501fd07ff04U, 0xff0102fe0108fafdU,
  0x106f3f601040000U, 0x1ff0604f80cfefaU, 0xfb00ffff02fcfc02U, 0x30304fffff2fdf0U,
  0xfb04fe01ff01fbU, 0x701fdf90101fe00U, 0xfc0a0103fdfdff05U, 0xe5ff010007fe0000U,
  0x3010003fc04fd00U, 0x90100fd010101ffU, 0xffe102f207fcff00U, 0xfd03feff03fd0306U,
  0x205fe020000f001U, 0x6fffafc03fb050dU, 0x106ff05f306fe02U, 0xf1020402fcf90101U,
  0x20e0701040100U, 0x100ff0c01f601fdU, 0x401ff05070bfbffU, 0x100fd010407ff0cU,
  0x302f80203ff0201U, 0x502020300fbfefdU, 0xfe0e00ff0202ff03U, 0xc040b00fb0afefcU,
  0xff0003020109fafaU, 0xf8f8f90200ff0102U, 0x406000afa0002ffU, 0x101f506050cff01U,
  0xfb0704000600fd03U, 0x6030002020306feU, 0x5fff6070610ff07U, 0xf8fcfc03010ffb04U,
  0x6f7f32404f30102U, 0xfe020204d2f5fcf3U, 0x804f80002fcfe27U, 0xc0107fff9f004f1U,
  0x2f9edf807ff01fbU, 0xe900fde7fefbfefbU, 0x1040501f7e4f8fbU, 0xd2020504fffcf9fcU,
  0x2fefc07fb0104efU, 0xfbfb03fafc02f501U, 0xf905fcf8ff0506fcU, 0x1040100fefb0affU,
  0x3fb02fafa00f9U, 0x1201fbfe0501fa0dU, 0xfa03fa010607f7f5U, 0x301ebffff000103U,
  0xfef9fa0001f905f2U, 0xef02da0402fef600U, 0xfff2f5fb001f04U, 0xf9fc0806fa060100U,
  0x4edfb03f5fbff03U, 0xf906fc0a02010000U, 0xfc01030601f9f4U, 0xfcfc0502dc08f700U,
  0xf505040701fd03faU, 0xfd02010302d702U, 0xfa07d00c0801fffdU, 0xfd0602060203fefdU,
  0x40702df01ff00fbU, 0x20406f6e802f6f9U, 0x305fd0207000102U, 0x9fb01fc0000fd03U,
  0xfffb050703ff0202U, 0x200ff06010304f7U, 0x3ff02070105fff6U, 0x3fffa0301010b06U,
  0x4f20301000101U, 0x3fffe01fffe01ffU, 0x40bff0109fbffffU, 0xc0004010304fefeU,
  0x301fe04ff01f9feU, 0xfd00fd01fdff02ffU, 0x1040207fefb0401U, 0x1020709fffc00fcU,
  0x102fe0303ff08fbU, 0x30108ff0300fdfbU, 0x3100702fbf902U, 0xd704f4fbfffefcU,
  0x1f2010201020002U, 0xb00fd000efc04U, 0x100f90101fd05f8U, 0xfefa00020b06ff02U,
  0xfcfcfc0202000603U, 0xff00fe02fe01fe02U, 0xfffdfbf90001f5U, 0xfd0600fd0202fefcU,
  0x301fc02f3fe25f8U, 0xff02d8ee0a01fdfeU, 0x16fd01f7fc17f101U, 0x402fef907fbf904U,
  0x5f7fe00fffe03fbU, 0x2fdfb000204fdU, 0x501fef9fffcfe03U, 0xfefc0206fc0100feU,
  0x702fe04000203feU, 0x4000100fa0001feU, 0x3ddfa03fefd0201U, 0x2a0203020601fdfcU,
  0x14f207fad501fffeU, 0xfd02fdfffb0601fcU, 0x3fffffbf30109fdU, 0x3fbff0eff06fffaU,
  0xfbfcfc00020402faU, 0xfff9fe00fd0104e7U, 0xfbfe05fc0005fdfdU, 0xfefdfdfe0d040affU,
  0xfffe02ff15fafc04U, 0x301fbfd0a070302U, 0xff0004fefb0301feU, 0xff00ff000604ffU,
  0x4fc04ff0200ffU, 0xff01010700010001U, 0x4ff01ffff02fd02U, 0xfffbff01040103U,
  0x3fefd03ff010004U, 0x40006fa0003ff02U, 0x3fd000202ff0200U, 0x50007fe00060000U,
  0x503fd02ff0004U, 0x501ff00ffff0006U, 0x50005fcfe0000U, 0x1000106fe000200U,
  0x2ff01ff00050301U, 0xfeff0002ff0401feU, 0xffff01fd00ffff00U, 0x1fffe00fffd00fdU,
  0xff0201ff050bff01U, 0x303000004030001U, 0xfdfefe0102010201U, 0x205fe0a00ff03ffU,
  0x200fb00fe040102U, 0xfc0000fffffbff01U, 0x14fdfd01fdfc0800U, 0xfeff0000fffe0706U,
  0x3ff01feff03fe03U, 0xfd010000fffdffffU, 0xfffffe0100000000U, 0xffffff00fdff02U,
  0x1ff000101010401U, 0xfc020401050001U, 0xfafa04f8fdf303f3U, 0xe4fe0507001f06f1U,
  0xf408eb0ef707fef9U, 0xfd18fbeee4fdecffU, 0xfcf700f803f804f5U, 0xf30500fef6fbfbe3U,
  0x12fd14400202f8feU, 0xfb020bf2fefcfdf8U, 0xf3f90414fa1103U, 0x1307f6f9f90702fdU,
  0xf70f06f8fb00fa00U, 0xf4f203fdf9f9030dU, 0xf7fffbf6ec0afaffU, 0xf7fb04120af5fb03U,
  0xfe08fd00fff8edfcU, 0x9f2f201f60700e8U, 0xfbfa0207f902fbffU, 0xfcfd07f8ffe904fdU,
  0x101fbf60105fd02U, 0xfdfafe05fffa02ffU, 0x110405fb01fa0111U, 0x1fd03070309faf6U,
  0xffff02fa04fd04feU, 0xe000c00fef9fc0aU, 0x306fa05ffff0007U, 0xfe0807fc020b01ffU,
  0x108fffa0602fcf2U, 0xf6fc0100fffdf7fbU, 0x21402f60ff905f9U, 0xfd04020603000d04U,
  0xfe02fffd0108fa06U, 0x104fe02fe090806U, 0xd502fffbfb06e910U, 0x4f8f10706f00ffeU,
  0xfc02050900fd05f0U, 0xfcf90703f703f000U, 0xff07f5f504fbfbfcU, 0xe09fefbfaf6fe07U,
  0xff031101fc070314U, 0x100030bff0300feU, 0xfe0a060d05f80ff4U, 0xd050310f4fa07f9U,
  0xf200f8040704ff05U, 0x700f705fbffecfcU, 0xfafce707fa040809U, 0xf702fe07f5fefa10U,
  0x307fa01fefcedU, 0x5fbfc02f2fbf7fdU, 0xa08fe0702fc0600U, 0x5000307040c0007U,
  0x4fcfcfd02030305U, 0xa05ff02fb04feffU, 0xf902150002fc0804U, 0xff03fbff0402fc05U,
  0xfdfc06050102fe04U, 0xfe0bf5ff06060301U, 0xff0506010105fcU, 0x105ff0405ff0300U,
  0xfef403fcfdfe02fcU, 0xfdffff02fe080600U, 0x10404030206fe05U, 0xf215fd000ffa0606U,
  0x30704fb01fbf805U, 0x205fff40b06fefaU, 0x1feff010000ffU, 0xfd0001000000U,
  0xfffe010100010000U, 0xfffe01010101feU, 0x2ff030002ff00ffU, 0xffff020000ff0100U,
  0xff000000fe00fe00U, 0xff00ffff00040000U, 0x3ffffff01ff00U, 0xf6fe00ff020000feU,
  0xfeff01ff010100U, 0x10501ffffff0000U, 0xfffeff09ff01fdffU, 0x10005ff00fc05ffU,
  0x201ff00fe03ff00U, 0xfeff0101000100ffU, 0xf8fc0204fefc01feU, 0xfa030303ff03fefeU,
  0x30101fff9e3fd02U, 0xfefeff03fe05ff02U, 0xf904ff0001fe01fdU, 0x308fb48010103ffU,
  0x3fefffc040c02fdU, 0xfa0201ff07fffdfdU, 0x7fcfe01fefe00feU, 0xfeff03fcfdfef4feU,
  0x300000200fffd00U, 0x9060200040500ffU, 0x3fafeff0002ff02U, 0xfdfdfffb040200fdU,
  0xffff010702fbfb02U, 0xe301f602fefb03fdU, 0x301fffe000100U, 0x4f60003fe0001ffU,
  0x301feff0001ff00U, 0xff09fd010000fe01U, 0x1000000fb02ff00U, 0xff01ff00f8ff0001U,
  0xf3ff02ff00000103U, 0xfdffff0100fe01feU, 0xfe000001fffffcU, 0xff02ffffff010200U,
  0xff0000fe01030100U, 0x1fdff0c0f01ff00U, 0xdfe01ff01fe0002U, 0xff00fefe01fe00U,
  0xfc04f7ff0001ff01U, 0xff00fe01020300U, 0xfbfffffffc0305U, 0xf80009f901fcfbU,
  0xfd03fd000201fdffU, 0xfefd01fe01fd0110U, 0x7fc0303fdee0203U, 0xfffdfffffa01fcffU,
  0xff05010102fcfc12U, 0xfefe0200fef304fcU, 0xfd03faf8040200f7U, 0x5fc02f704fafdffU,
  0x2fd00fdf9fe0500U, 0x1fb05f9fbfe03U, 0xfa0004f90104fdfcU, 0xfd030102fdef05faU,
  0x7fb04010002fefeU, 0xfdfd0005fafff7fbU, 0xfe1a0000f50005fdU, 0x40502fefe0402U,
  0x302020400010200U, 0xfffcf4fdf8ee36fdU, 0xf8fef00601fffff8U, 0xfb020000fbfbfc01U,
  0xf7fd06fef9010008U, 0x1f9fcfa000305ebU, 0x1fcfffb08fafe0dU, 0xfcfd030af80200U,
  0xff05fe0ffd00fe00U, 0xfb03f40403010014U, 0xf8fafd07fdfcffffU, 0xd502fdf5fe05f5fbU,
  0xdf704fb02f5fe22U, 0xf9fa02f704010f00U, 0xf4fc01fff90102U, 0xf8b202fe00fd0a0cU,
  0xfe03080300000500U, 0x3f601000108f9f7U, 0x4fcff030d0109f8U, 0xfff406fe080100ffU,
  0xf200fc0500faf002U, 0xfffd010501010102U, 0x505fafff7fd0401U, 0xfef901090100f200U,
  0x30307fcedee18fcU, 0x20200fc1d030600U, 0xecfa01f2fff7f6f4U, 0xfeff0105040204f8U,
  0x8f20b0102010601U, 0x2f9fefd0104f2f9U, 0x308fb03fc04ff05U, 0x90102fcf9f201ffU,
  0x3fc17f1ff01fffeU, 0x5fb070006fa0500U, 0xf5ff050403fc0007U, 0x104000002fefd02U,
  0xfefd00ee06000402U, 0x1208fc0801050004U, 0xf702020408f30100U, 0xd00002fbff03ff11U,
  0xff000607060203fbU, 0xfb0afb01000000f3U, 0x205ff19fcf705f8U, 0x607090905010402U,
  0xfc02010302040503U, 0x105fd01fff00204U, 0x5060205fefb0205U, 0xf6fe0203f9ff0b00U,
  0x200ff00000003U, 0x5f70506fefc0401U, 0xff02050204fc0901U, 0x6fd0201feff00feU,
  0x801fe0005f7f904U, 0x400020300fb0100U, 0xdfdff04fd0604U, 0xfdfcfb0800fa02U,
  0x5fb09fdfdf607ffU, 0xfd01fcf0ebfe02ffU, 0xf60306fc0201f9fdU, 0x1050303faeff9fbU,
  0x5fd090701fb0001U, 0x201000704f9ffU, 0xfcfcf7ff10010305U, 0xfb0307050200f6ffU,
  0xfbf8fff7fc030002U, 0x4020100ff03fdffU, 0xf303fd0005fbffefU, 0x40bff01ddfff0U,
  0xfa0604060002fcffU, 0xfe04f9f5fe0d0001U, 0xfff1ff01effe03ffU, 0xde020603fffb05f9U,
  0x108fffbfa0200fdU, 0x160504030203fff9U, 0xff0b07f6ff08fc02U, 0xfd001df603f30904U,
  0xfffa03fbf7040704U, 0xfffffe020000fef6U, 0x1fc0102f2fb0100U, 0xf903ff02010203feU,
  0xfffef90204010301U, 0x5ff01fefbfaff00U, 0xfffdfe03fefff9fdU, 0xff03fdfbfd030102U,
  0xfc0300fcfa0202f7U, 0xf501f7fb00fdfdf5U, 0x10a010019ff04feU, 0x805f6fefeff0204U,
  0xff06f642fffdf905U, 0x50300ff01fe0201U, 0x1fffd030201fc03U, 0xf5fd16f6feff0afdU,
  0xf3feff0000fcfffdU, 0xff02ff0201fd0304U, 0xfb0601ecfd05f3f5U, 0xff05fcfe03f8010bU,
  0x1fd0202fa080935U, 0x300600ffff04fc04U, 0xfa04eef8fdfcfc03U, 0x8ff0200fef5fd05U,
  0x6f2fafdef00fe04U, 0x203fffcfa0b05feU, 0xd01fe03fafa03fdU, 0x708fe0a0df708fbU,
  0x6feff03fa02fd02U, 0xfdfb01fd0104e9fdU, 0xfefafbfcfbfefe02U, 0x2f3fa00f8f9fb06U,
  0x4f8fc0a0300f9ffU, 0xf10bf8f4de14ff01U, 0x4fefd0103fffdfcU, 0xfafdfc03f90200fcU,
  0x1fffc03fe02fe06U, 0x400fc01fbfeff03U, 0x4bcfe0001fe0501U, 0xf8fc01fdfe020105U,
  0x401fffce503fe04U, 0xf9fe02ff05060203U, 0x7fdfafff8ff0005U, 0x3ff0a01fdfc02U,
  0xfd0000fefe050000U, 0x4fe000008020204U, 0xfc0000f7fffdfaU, 0x1000000fe0400ffU,
  0xfb07fefc11fdfd04U, 0x40700ff0709f900U, 0xfe06f40001fffbfeU, 0x602fdf8030a0fffU,
  0xfef8fafd000305ffU, 0xfbfefc02fd04ff02U, 0xf700fe00fef70dfdU, 0x1040501fefdffffU,
  0xfeff02ff0200f700U, 0xfefc00fb0002fef8U, 0x301030207fd02feU, 0xf9010101fd020600U,
  0xf20ef9fd05ffU, 0x2fff6010304fc01U, 0xfffefcf706f5f503U, 0xf9fffefb000c1603U,
  0xf7ff01fe0409fff4U, 0x1faff00fa02U, 0x2f0700e804f806dbU, 0xfdfe0afb07f8fdfcU,
  0xfafefffbdc02fa19U, 0x16010106fc08ff02U, 0xfffffc18fe05eb13U, 0xf809faf902fdfdfbU,
  0xd1303f10afefeU, 0xfaf70103070bdc02U, 0x1007090800fb02feU, 0xff090bfc0cfc1603U,
  0x704f403fbfafdf8U, 0xfff80102fc05f704U, 0xb02fe0300f802U, 0x4fbfdfdfa020507U,
  0xf702070501f3feU, 0xfff8fb04ebf4fe04U, 0xf304fdf40004ff07U, 0x906f4fe07f80006U,
  0xf9fdfc01010008f1U, 0xf309f7faf7fdfc06U, 0xfe0404effffef300U, 0xf9030602fffb01faU,
  0x6f407faf8ff0002U, 0xfb0107fcfbfffc01U, 0x1fb05f9f20c02U, 0xc07fe0df3fc0b05U,
  0x24fefdfcfefe00ffU, 0xfe0003000301f7feU, 0xfcfcf100fbfd0307U, 0xf3fffdfffbfafd09U,
  0xfbfd012a0302fa00U, 0xfa03fbfa05030003U, 0x5fe0202fffe0501U, 0x7fc0804f80201fcU,
  0x403ff000301f803U, 0x4f9040005010308U, 0x200fe02fcfafeffU, 0xf7fe020001fe01U,
  0xfa00fd01fff7fa0dU, 0x2ff0303fcf8ff03U, 0x9f9fcfe00ffffU, 0xfb01fa0201fa02U,
  0x1020003fdfe0400U, 0xfffe0000faf804fbU, 0x501ff04fcf8U, 0x5010006f9f1fcf8U,
  0xfaf8ff02fdfe0400U, 0x1fe00010b02fffdU, 0x403fb06fe020603U, 0x2fd0402010302fdU,
  0x1fc01010105fe05U, 0x3040500fd010203U, 0xff02040200fd0005U, 0x100fe00030000fdU,
  0xfe000203ff0201ffU, 0x326fe00ff030002U, 0x1fe060005010302U, 0x30201fd05fd0203U,
  0x3fafbff00ff01ffU, 0x30101fdU, 0x209fe02040200U, 0x10601fc02fefe03U,
  0xa00030201ff02U, 0xff0600fc040102faU, 0xfe01001b00fc00feU, 0x104ff02fbf6ff0dU,
  0x13010bf3fbf8f8feU, 0xfeff03fcff00fc05U, 0xfcff020c00ff0700U, 0xfcfc06fd0100f502U,
  0xfdfe08060103fefeU, 0xfafefce9fd020e00U, 0x405050103010a01U, 0x203fffafd0101f5U,
  0xfe01fb02fe0103f3U, 0x5fdfc030203fefcU, 0x2000206fffefbU, 0xfa00fdfd0301ff02U,
  0xfdfe010111fff604U, 0xfe12f406f9f701faU, 0xfe04ff030b05f6f3U, 0xfaffeb01fff7ff04U,
  0xfeff0000ffff04fbU, 0xfbfdef090903f4ffU, 0x4fe05ed030808f7U, 0xfefe0403030302fdU,
  0xf7f4ff0007ffff02U, 0xfc02050502ff020aU, 0xfbf80202f50505fdU, 0xfff0603fc06fd00U,
  0xe909fe0aff020300U, 0x303fefa0000fff9U, 0x10af0000b03ff02U, 0xf3f8010b02ff09ffU,
  0xff02f7eafcfc0602U, 0x401ff07f305ff06U, 0xfe01000404f1f807U, 0x200fb02faff0007U,
  0xfe01f5fbfefd02fcU, 0xfef700070a04feffU, 0xf903010501000300U, 0x601010302080511U,
  0xfb01f600080101fcU, 0xfeff0003fe00fe01U, 0xff00000309fbffU, 0xbfb0504fe100008U,
  0xfefb0200fcfefcfaU, 0xfffffc020003fdfeU, 0x304f909f9000000U, 0x20407f8fa03fcU,
  0x1fb0301f80400fcU, 0x50702f0fc00fdfcU, 0x109fcfefb0505ffU, 0x50afe040a05fc07U,
  0xfe00ff01fe0407feU, 0x307fd06fb050b03U, 0xe8fef704fbfe08feU, 0x20a09fb07000006U,
  0xfd010603fc08fb00U, 0x406f90101090304U, 0xf9fd0809fe0207ffU, 0x309fa09fefe0904U,
  0x2fbfe03fefaffffU, 0xfdf90207060c00f8U, 0x505030001050008U, 0x15f1fbfd0afa0108U,
  0xff04060203faf300U, 0xfe05f5ebfb0203f0U, 0xfbfcfcf2fc03f4faU, 0x302fa0503f0fcfdU,
  0x601050304fafffaU, 0xfd020102fefdf80aU, 0x60002ff00ff11ffU, 0xf902010401fe0202U,
  0xf2fffe01fcfe01fbU, 0xff010205fd03fffaU, 0xfefc04fffffa0605U, 0xfcf904fcfdfffc00U,
  0xff06fcfffeff0801U, 0x9fd05fbfcfc04deU, 0xff01070302fd00fcU, 0xfbf5fd00fa030300U,
  0xf50301ff03020202U, 0x300000102fcfff9U, 0xe902fc0004feffebU, 0xff02fe0802f9fb00U,
  0x62fd01fbcd06f9fdU, 0x1010403050601fdU, 0x70001090102f6fbU, 0xfa06fdec00fafe09U,
  0x60400fb050000fcU, 0xfaff0704f20de4f7U, 0xfef4fffbfeff01U, 0x9fa0104fb010d18U,
  0xfafc00ff0007ffU, 0xcf402ff09ff0306U, 0x1f40504fd0900fdU, 0xfd0400fcfdfefff9U,
  0xfeff01000a05fc01U, 0xee04f80504d6fbfcU, 0x300f4fb070505U, 0xfbfbfefffdf8f4fbU,
  0xf0fffef2f7f9ff00U, 0xfd0af307080803U, 0xbfaff0106fb02f0U, 0xf9fffefefdf501ffU,
  0xf702f9f4f90e00f8U, 0xff0005fa01effdfeU, 0x3709f80701f90d02U, 0xf702fbfbfa080af3U,
  0xd070100fc06fbfeU, 0x80c02fcfaf90c01U, 0xfc0300fe08fefefeU, 0xfe07030601000007U,
  0xfcf7fe0107fef200U, 0xd2fa0af8f4170505U, 0xff000501ed0100ffU, 0xfbff04fe030108feU,
  0xff0502fdff00ff01U, 0xfd0503fe00fc00U, 0x5fffd0106100706U, 0xfe010502fd03f7ffU,
  0xfcfe0303ffff0007U, 0xfefefffe04fd0005U, 0x30d000000fe0200U, 0x602f4ff05fb0102U,
  0x10405fe05040b05U, 0x4f303ff01fe03feU, 0xfe03ff04fefd02U, 0x40210e502f7e103U,
  0x302ff0101f4fb00U, 0xfcf9faf904020003U, 0x301eb0001fe0001U, 0x604020909fe0103U,
  0xfe08fdfdfd040301U, 0x40603fdfe0a03f9U, 0xfbfd000003fdfc04U, 0x10900fc04fffcfcU,
  0xfefe0501000407fcU, 0xfe03fdfd0302ff03U, 0xfe020204fa0404fcU, 0xfe05fe0204fe05fdU,
  0x4fb04fc05ff0002U, 0xfe000b0200070400U, 0xfefd03fa01fe0103U, 0x503fd0205fdf504U,
  0x401fd03fffcfa05U, 0xfafdfdf9040102fcU, 0xfa0005fc12f401feU, 0xfc0003fefafa0104U,
  0x203fffe02f800feU, 0xfe01fa04fe040101U, 0xf60403ff0700f514U, 0x4ff02010808ff04U,
  0xfdfe04f2000104f8U, 0xf7fef4fefff80004U, 0x2f900fdf808060bU, 0x11fefd06001000f8U,
  0xfef80b0808090905U, 0xfefe0303ff0002feU, 0x8fc030ff80106ffU, 0xfe010ef6ff01f3fbU,
  0xfefe02fffd02040aU, 0x103fe06fd020707U, 0x1f2fe00faff08fcU, 0xff0105f504050904U,
  0x3f9f5fdfcfb0304U, 0x8ff05fefb0cfefcU, 0xfe01fefaf9faffU, 0x10009fe010109ffU,
  0x4fef2f9fe03f709U, 0xf9fffef6fefb001aU, 0xff0a02fdf7f0fffdU, 0x1fdf8ff0dfc01f9U,
  0x8fc08f502f91903U, 0x3f90b0202030207U, 0xfeff03f60403fb03U, 0x60105f7fafbf3fdU,
  0x21fdff0901f8ff10U, 0xfc0007fc08fefc07U, 0xff01ff05fb0301fcU, 0xff00010305000105U,
  0xfe05fdfdfe0103U, 0x201020103fdfe00U, 0xfb01fe03ff02fffdU, 0xff0007fbfff801feU,
  0x201fc020100ffU, 0xfe010503fe02fcfcU, 0xff01fd05fdfffe03U, 0x504010403fafeecU,
  0xfd0201ff02000003U, 0x2ffffff010202feU, 0xff00010200010005U, 0xfe030101ffff0105U,
  0xfc0000ff00030502U, 0x7020302030102fdU, 0x201fc07fd030503U, 0x2020202feff0204U,
  0x2f8030003020504U, 0x1000200fd020007U, 0xfc0402fdfe0504U, 0xff01fc02000101fcU,
  0x5ff0302ffff0100U, 0x8d5fe050704fe01U, 0x1fdfd0b050003ffU, 0x302010005fbfc02U,
  0x4fcfefe02020000U, 0x3010003ff02ff02U, 0x20508fb040404feU, 0x501fd150000ffU,
  0xfeff020104fe02U, 0x10004fb010001fbU, 0x1fd01f209fdff01U, 0xfd00fb08ee000015U,
  0x203f901f9fffb01U, 0x3fffbfefeff0102U, 0x507ffff02fe0700U, 0xfff80502ff010006U,
  0x7fefefd0100ff03U, 0xf601060407fffbfeU, 0xfefeffffff020300U, 0x8ffff01fe0006U,
  0x3050004ff03fffeU, 0x100030103000202U, 0x2ff00fefc0000U, 0x401030109ff0005U,
  0xfcfc01ff05fafe06U, 0xfeab00fd0404fe01U, 0xf4fd00ff00fd04U, 0xfd04f7fedbff04feU,
  0xb0002040801fd01U, 0x1f5f70301f2fe06U, 0xfdfffd03f90317fcU, 0xfbf00103fdfe0608U,
  0xd7030100fdf80001U, 0xfff600fff8fffe00U, 0xfd01f7f20202fafeU, 0x400fff8f9fef507U,
  0x405feff02f90302U, 0x4fdfffbfafcf8ffU, 0xf703f9010107010eU, 0xfbfd06ffe1fb02f5U,
  0xfaf7020103000204U, 0x8fe01fe0000f401U, 0x0U, 0x0U,
  0x0U, 0x0U, 0x0U, 0x0U,
  0x0U, 0x0U, 0x0U, 0x0U,
  0x0U, 0x0U, 0x0U, 0x0U,
  0x0U, 0x0U, 0x508f704f10e0805U, 0xe7030002070b0606U,
  0xef7f1f107e3ff03U, 0x50402e9dff8fff1U, 0xffe06fefde41ad6U, 0x7fc110504f104dfU,
  0xfd03f403f5ff061bU, 0xf100fafaf9100800U, 0xfbe40bfaf2f9e8fdU, 0xe001f706fc03f818U,
  0xff12f80312fc1712U, 0x130306010101f8fdU, 0x2f1f8f1ef080d01U, 0xfa01fefc00fc02fcU,
  0xfbff0403f906e904U, 0xff800f2fceefdf4U, 0xf3fefffa010cf8f2U, 0xfdfa00faf5fefeU,
  0x6ff10fe08fef7f5U, 0xeff9fb0204fafffdU, 0x3fffdf2fb031dfeU, 0xfaf60105fbfd07fcU,
  0xf7f6f8fcfbf5fffeU, 0x502ff03fc0102ffU, 0x202fafcf8fd08fcU, 0x5fd02fef7f6f705U,
  0xf200fe00fffb0001U, 0xf400fffef7f0f2U, 0xfe00fbfd080000f9U, 0xff010002f8fafcf7U,
  0x3fafdf3010107feU, 0x7000101f600fdfdU, 0xfdfcfe030401ff03U, 0xfffefd0101ffff00U,
  0x500f4020846faf1U, 0xf9fefffffc0200ffU, 0x4f8feff00fbf806U, 0x2f909fffffe01U,
  0xfa0005fd0607ff02U, 0xf8f20200df0afcf8U, 0xffc12fefff9fdfbU, 0x105fd0200fdf500U,
  0x200fdff00060002U, 0x30300fefe040502U, 0x1fbfbfdff0100fbU, 0xfefefe0203fefd03U,
  0x30105fbfffe00U, 0xf5fb04ff03fc03fcU, 0xfc00fd0606f9feU, 0xfc00f8020309fdffU,
  0x4040104fbfb00fcU, 0xff08f8fe01ffe409U, 0x3001d01fb0505ffU, 0xf902fc0104faff02U,
  0x2fafd01fd02fb00U, 0x505fafc010202f8U, 0xfeff0403f804010eU, 0x1060201fafcff00U,
  0xf7fdfaf4fef70c01U, 0xfe0201f3ff0505f6U, 0x401fffffd00fe03U, 0x2f0b000102fefc02U,
  0xff00f50000f40106U, 0xfb030001ffff0efcU, 0x2ff01000001ffffU, 0x314ffff050001feU,
  0x100feff0001fe00U, 0x1f9fd01fffffdffU, 0x2feff00040302ffU, 0xffff01010effff02U,
  0xcff02ff00000202U, 0xfefdff0101fc01ffU, 0xfe01ff0200ff02U, 0xfe0400fffe010000U,
  0xff01010501fb00ffU, 0xfffef7f600ff00U, 0xfafe02ff0202ffffU, 0x1fefffe0601fe01U,
  0xfcfd0dff0000ff01U, 0xfe0201fa00U, 0x1fd1104fd02fbfeU, 0x30a00f30301f8feU,
  0xea03020100fd01U, 0xfffbfcff01f2fc02U, 0x1fcfbfb0009f203U, 0xff0205fe1603fcfcU,
  0x3020302fe00f3fbU, 0xfffd02fefefafde7U, 0xfef504fe05fe0308U, 0xfdfffe00fefefd03U,
  0xfefef50402e8e405U, 0xfe06f0cb09ff0100U, 0xcff0007fb2a04feU, 0xf600fe0302f5fe04U,
  0xd000afe01f50103U, 0x300fffefdfc0105U, 0x103000401fbff03U, 0xfe1e04fcf5010bfdU,
  0x30b0301020000U, 0xff00ff0006f6f7U, 0x306fb01ef040bf6U, 0xff0601fa0302ffU,
  0x101fc0502fbed03U, 0xfb080102fd03fc01U, 0x206fcf5f4fc02f2U, 0xfff702ff0202ff01U,
  0x6030502e90b1bfbU, 0x500070aabfcff00U, 0xdf803f1fefded06U, 0xfe01ff00f7f9fff4U,
  0xbffef01010003ffU, 0x40400fb0306fff8U, 0x20102fa04fc0cfeU, 0xf902010200ed0cfdU,
  0x40002fd01fb0502U, 0x3ff02fffb02f8fbU, 0x604fef816f8030dU, 0x2fefb03040afcf9U,
  0xf80404fb0501f015U, 0xf70c0400fe020205U, 0x4ee010505030206U, 0xfc04f70206f405f4U,
  0x2fe06f6fc120700U, 0xfbeffdfeff0302faU, 0xa05e10100f205U, 0xf9f800fd1709fb06U,
  0xfa0b00fff6defb18U, 0xf800030a05020514U, 0x1ecfe00ff0204ffU, 0x70104fdda06fecfU,
  0xfcff01fe04d901U, 0xffe102ff02fafe01U, 0x4f501fdeef90504U, 0xf506020401fd00U,
  0xec000404feec01f8U, 0xfb030204ee0201feU, 0x5daef00030100U, 0x6ea02cd02fbfa02U,
  0xfeff030101fd0501U, 0x3ff00ffffe30600U, 0x103000406ff02e7U, 0xfd000004f2ff05ecU,
  0xf202010302fa04U, 0xffe5fffe0307ffffU, 0x215f8fe02f20107U, 0xf000f808f7f6ed04U,
  0x1fcfd09fefa0500U, 0xe808f2010ae6eefbU, 0xfaff2afcf91015f5U, 0xfefdf2fc0cfc0012U,
  0xf2fcfcfdfcfaf3e5U, 0xf6faf505060608f2U, 0xfbf306f4fc06f8feU, 0xf9fe01f4f4fcfeU,
  0xfbf80422fbfe03f0U, 0x201faf4f802f6f8U, 0xc04f5faf405ec01U, 0x34eff905030f02f9U,
  0xfafdf4fbfbe201f6U, 0xfafcf8f0010301fbU, 0xf4010006f6c6fd00U, 0xecf7f823020cf401U,
  0xee05e6f6f11506feU, 0xf80bfdf6f703f8f8U, 0xe4fceef9f403f609U, 0xfd000cfaf6fff7f6U,
  0x5020e0502fff7edU, 0xfafb05fb0ce4U, 0xffdef70108fb0dffU, 0xe9fafffc05fd0000U,
  0xf8ff0107e9f20effU, 0x1a00f7f302fd06U, 0xf2fefaec1821f9fbU, 0xf9fef5f301f1f3fdU,
  0xe704f5f80ff0f1e1U, 0xf50400f6f9fef910U, 0x4fc021f00010f05U, 0x1fb0d0201f500f7U,
  0x7ffff0707f8fe06U, 0x2fb03ff05020702U, 0xfcfd00f2fdfe02feU, 0x11fc090504fc0301U,
  0xfdfefb03effe04ffU, 0x800fefefb040107U, 0x2030103fd000c04U, 0x4fcfffe05fcfdfaU,
  0xfe0407ff06fd03fcU, 0x1fe01fffbff0918U, 0x8fe01f9fd0203feU, 0x60cfffefeff05feU,
  0x303ff00030302fdU, 0x6f80105fc020004U, 0x102e2fcfdfdff00U, 0x10200ff0103f900U,
  0xff0e0300ff0100ffU, 0xfe01010401fdfefbU, 0x201fffe0d02ffU, 0x10302000903fefdU,
  0xfc020100fe0221fdU, 0xfffdfd0002020103U, 0xfffeff02ff01fefbU, 0x5020102fe000302U,
  0xfefdf6000afff102U, 0x41208fd01ffffU, 0xf5feffff0202fffeU, 0xfcff0101040208ffU,
  0x701fbff02fb03f6U, 0x2fd00fd01001200U, 0xfe0002fdfefefffdU, 0xf8fe0002fd0efefcU,
  0xfd04e70afd01fdfdU, 0xfd06ff03f70301fcU, 0xfdff01fc000101feU, 0xffffff00ff0001faU,
  0x7fe0002fefe00fcU, 0xf5fc01f9fef401fdU, 0xfd04fc01fd020600U, 0x12fc01fffbfefffbU,
  0xfff700fa0101fbfbU, 0xfbfdfe00fffb040aU, 0xfd02fff200040001U, 0x3ff0101fefb04U,
  0xff04feff0001fffdU, 0xf8fefefbfb07ffffU, 0xfe160102ff00ffU, 0x8fcfe05fdf91afeU,
  0xff151503fc04ff02U, 0x101000700f3fae3U, 0xe010101fb07fdf1U, 0xfe03fdfb03f700U,
  0xfe030300010c1aU, 0xf70200060101fffbU, 0x100ff000c050cf5U, 0xfefd02000006ff04U,
  0xfefc1c0026fe0604U, 0x20e0801fd00faf7U, 0xfa06ff20fc0413fcU, 0xff030504030800ffU,
  0xfb02ff01fefefdfbU, 0x4fffff6fd03f5f7U, 0xf600ffe40707faf9U, 0xf7fffa02ff1806f3U,
  0x11050b110a08fafdU, 0xf9070605f803f70aU, 0x4ff00fe020e0df9U, 0x1fbef0101fb03f5U,
  0x6f5ff0908f800fcU, 0x505ef1a01f70a04U, 0xfa0101fffbf71404U, 0xf70600fbfa0af802U,
  0xfafd04fd04fdfc03U, 0xfef800fd00ffed08U, 0x3fd090208ff01faU, 0xfb0108030704fbfaU,
  0xfe0afefedcfd0dfeU, 0x20fa0af809f702ffU, 0x807fe080303e9f6U, 0xf503f60603000203U,
  0x80105fb0602fdf8U, 0xfaf8f8020cfcfc00U, 0xfff8faf4fe0806fbU, 0x11ff0201fffe0108U,
  0xfaf1ff09d1fcfe08U, 0x105000503070100U, 0xfafb020a000406f3U, 0x503fff1ef01fbfcU,
  0x3fffb08fd0105fcU, 0x7fffc020400f1f1U, 0xff0305fd0204fa02U, 0xff0b06fffcf80201U,
  0xfdf901f803010001U, 0x3fc02f9f5fffa02U, 0x101d60202fd02fcU, 0x10601f500f90601U,
  0x62e0602ffffff01U, 0x1ff0103fef602f8U, 0x20101fd040200U, 0x201fc0d07fefaU,
  0xfcfcfc00feff0907U, 0xfd00fe020101ff06U, 0xfffeffff01fe02feU, 0xfefbfcfd00fdff02U,
  0xff0007030204ff02U, 0xfe021c07010201feU, 0xf90202f503fffe01U, 0x200ff000202f900U,
  0xfd03ff000407000bU, 0xff00fffe00040102U, 0x500fb050403f7U, 0xf50405f903080604U,
  0xfbfc02fe05fb06ffU, 0xfbfe31f604ff0cffU, 0x703f4f8fdfef705U, 0x1fffa060003fdfaU,
  0x5ff0501fafc0004U, 0xff05f9fe01000000U, 0xfc020212040307fbU, 0x2030202fef3f601U,
  0x6f3090b0b0300ffU, 0x100040003060ae9U, 0xfe0000fd07fe0001U, 0x10c7f5fa01fdfd00U,
  0xffff030500fd0304U, 0x4040609fa09faffU, 0x1010106f9fffe02U, 0xfe010107fc00U,
  0xfdfe0408f0090006U, 0x4f901fdf900fefbU, 0xff0404f3ff01f8f8U, 0x1a0306fa00fe0c03U,
  0xfb0107fd050afefcU, 0x9fffd26fc04f205U, 0x6fefafe01f70c01U, 0xf2fdf600010705fdU,
  0x8fefd01fdfe02f6U, 0x5f5ff000305fdfdU, 0x1fbfaff0503fafaU, 0x1fd02fcfefcfdU,
  0xfffc0106e4ff0208U, 0xafbf50501f700f9U, 0xfd0101d6fe04fe02U, 0x5021302030000f5U,
  0x10003fdfffc0002U, 0xff0509ffff000302U, 0xf8f9001d030105feU, 0xce0506010301fd01U,
  0x1d70304400201ffU, 0x3fcfcfb000108f8U, 0xfd00030107f90200U, 0x402fffe040003fdU,
  0xc030000030202f9U, 0x1000503000000faU, 0x2010a03fb040204U, 0xfe0b000002fbfd00U,
  0x1030301f6fe0201U, 0x2fcfc01f50101fcU, 0x3051bfe01fefe03U, 0x70200f20504f600U,
  0xe1fbfcfd010203U, 0x103fefd02f505ebU, 0x10002fd0316fbffU, 0xfd0202fef7fffd00U,
  0xfdfd05ff0201def7U, 0xfaf9fcff02030004U, 0x1ff01000dff01fdU, 0xfd02fcfeff01fe01U,
  0x1f60512f7f005U, 0xfd01e50205ffff05U, 0xafefe07fe072902U, 0x4fdfefe05090903U,
  0xfafd05fd00fbfb07U, 0x102fef701fe0000U, 0x6fbff04fdfe0402U, 0xf1ea02fffb000e00U,
  0x20503000104fc05U, 0x702030501fb0503U, 0xfe0503f5fb0bffU, 0x5f50301f6000103U,
  0xf401fe0200fbf504U, 0x201020500f9feffU, 0xfe0ffbf504fe04fdU, 0xfdfaff0402f404U,
  0x4fc07fafb0309feU, 0xfefffd0a01fa02ffU, 0x103fd0207fcf8U, 0x1050502fbeffcf8U,
  0x4ecf40201fc0100U, 0x10301010a0502fcU, 0x101fbfff504ff01U, 0xefb0ffd03f3fffcU,
  0x5fc0ffe05f5ff04U, 0xfff917090308fd07U, 0xe9040004fb06f9f9U, 0x4000f0303f2ff08U,
  0x2050c020a01fffeU, 0xf50aff03f806fe02U, 0xfdfc041601090004U, 0xfe020603010aff00U,
  0xfbfbfcfbfafdU, 0x190bfd00fd0002faU, 0x3f7060af7fb01fdU, 0xfd0f0403fefe0616U,
  0x5f800fff4fd03fdU, 0x40205fe0b0005fbU, 0x1fde1feffff0200U, 0xfa020108feff0001U,
  0xff2002ffff010001U, 0xff030201000403ffU, 0xff000003030107feU, 0xfe01fe00000002U,
  0x2fdff01fef6ffU, 0xfdfd000103030000U, 0xff01fe03fffe01ffU, 0x102000202fdfe01U,
  0x1ff04fe00fffe00U, 0xffff0ffb00030000U, 0x10201fdfef30302U, 0xfefffe010500fdffU,
  0x1fbff0004ff00feU, 0xfd01fd00feffffU, 0xffde0004fc0001U, 0x2ff000101071d02U,
  0xde0504030002ffU, 0xfe01050003e7ffd5U, 0x10003001206f7U, 0x301ff00000100fbU,
  0x2fe03fa0101060fU, 0xfe000201020401fdU, 0x40602fffdfe0401U, 0xfb00000201010105U,
  0x1020dfc1c01f601U, 0x1080402fe000105U, 0x20001f004041802U, 0x201fc020101e000U,
  0xfe0002fe04000200U, 0x2fe03fd01fffffdU, 0xfdffee00fceafd00U, 0xf007020afffce905U,
  0x9f0f9fdfffdfe01U, 0x401010e03e7fff6U, 0xf9030102fdf6fd02U, 0x60001fcf3faff00U,
  0xfefffbfe0303faeeU, 0xf5fff504fdfd0107U, 0x1fe02fef205fef9U, 0xf8040901fe0a0002U,
  0x3fbf805f5fe0628U, 0xfe0307f908030304U, 0xf60a00ff0f0ff6feU, 0x204f8f5fc03f8feU,
  0xfcfffa0001ff07feU, 0x60506f50009f900U, 0x5fa03ede6ff03U, 0xfe000305fefdfe01U,
  0xfbfbfe0000010600U, 0xfdfcfffc0900fffdU, 0xdfffd030109080bU, 0xfc0107ff0201fe07U,
  0xff04ff05fe00fe00U, 0xebfe09f8000001fdU, 0x1fd01fbfa01f303U, 0x6020202ff030104U,
  0x120ff03f301fdf8U, 0x16f3fc02ff03fbfdU, 0x2f1faf904050102U, 0x2fffe09fdfc0503U,
  0x1fe02fffe02fefeU, 0xf901fef802060200U, 0xfb0001fa0003f8fbU, 0x3fcfbfef9f1fe01U,
  0x4fd000101fbfdfbU, 0xfbf8000000fdfb09U, 0x6ff00ffffff0d01U, 0xfdfd0204fffc0001U,
  0x201020000fffdfeU, 0xfefc03050101fffdU, 0x2fdffff01fc03ffU, 0xfb0302feff020400U,
  0xff08fe02fb030501U, 0x9fffdfffffd01e4U, 0x50601040101U, 0xfdf6fe04ff040103U,
  0xf9f9fc0001030201U, 0x1f80005fff906fdU, 0xfcfffc01fe0402feU, 0xfffef902020cfff6U,
  0x1f9f3f4e906f7feU, 0xff00fcebf50c010aU, 0xfafcfbfdfeff0006U, 0xfeff16fa00f9e109U,
  0xfe09f9fffafefd01U, 0xebfffffdfb01fffaU, 0x204fc0000eb0d00U, 0x10fdfcf701f809ffU,
  0xfe02faffff00fb0bU, 0x7020102fa020d00U, 0xfffdfef702fffdU, 0xfe01fafc0706fc04U,
  0xf60503f8f6fef3faU, 0xaf432fbfb060110U, 0x2fe00040102fe02U, 0xf8f302f80c04fcffU,
  0xfe03f6f5f5fffe01U, 0x4fa06fdf80802f1U, 0xffb020c11f10108U, 0xfc0af703f8fa00f6U,
  0xe0c04fa0404fe06U, 0xf2f103080300fbfdU, 0x1ef020afaf1fd04U, 0xfa01f6fe090609faU,
  0x7fd0101ff13fc05U, 0x90207feff0408U, 0x5f7f3fef800fd14U, 0xfafd09011006fa0aU,
  0x2fef603fffffa05U, 0xf8f4ff0c00010f11U, 0xffffe203fa00fcfdU, 0xff050225ff00f6ffU,
  0x1100501ffff0000U, 0xfe04fd0204eff903U, 0x203f8fde709f304U, 0x303fc0a03fcfbU,
  0xf9fd0100fd0006fbU, 0xfc0300fe00fc00e6U, 0xf9fffe09fc0503U, 0x4fdff01fe0201U,
  0xfdfef7fa0204e006U, 0xff02100907020200U, 0x13fd0205fcf40004U, 0xf701010404f5fc02U,
  0x11fecd0003f70004U, 0x1fcfefefcfd0b04U, 0x104fcfb0001fb00U, 0xfe02fdfe00fcfd03U,
  0xfbfb0606020701feU, 0xfc0501fe00fefd00U, 0x42aff00fd0001faU, 0xd4fc04fc06050101U,
  0xe7fc0600150404fcU, 0xfc0901020106fe02U, 0x2fc02fdf6ee06feU, 0x1fe00f506fffc01U,
  0x301fe01fe0300fbU, 0x3000007ff10U, 0x1fdfbfc00020004U, 0xff0401fefffffbfdU,
  0xfa0e03ff0406fbfeU, 0xfbef0108f8000401U, 0xfe00090101fbff00U, 0x103ff01fffa0200U,
  0xc0301ff030100U, 0xfdff00ff0bff0cU, 0xff0000ff05ee04fdU, 0x10103ff05fc00feU,
  0xfdfffdfe0200fe0fU, 0xfcff000603fbfefbU, 0xff0000fffcff0406U, 0x201040103fbfe02U,
  0x2fded0101030b08U, 0xfb0a00010201fefeU, 0x6fd02f500fd0300U, 0x1ff00fe03f50ffeU,
  0x501fe00020dfe02U, 0x2fffffe01fc02ffU, 0x5fbfe0005f9fdf0U, 0x404070dfc00fa02U,
  0xb0fa08f87ffee309U, 0xfefd08fffb0602ffU, 0x901010ffff7f7fdU, 0xfffdfced0101f708U,
  0xa050900fcfffdfcU, 0xf8f8030afb142bf9U, 0xfbfe02fdf3f80a02U, 0xb00fff705000f04U,
  0x102f90201fe08fbU, 0xdf9ff030410f803U, 0x1f50afbf808fdfaU, 0xfc00fefffdff0103U,
  0xfe02ff09fe00f902U, 0xedfae7070a030005U, 0x1020000fcfe0000U, 0x3fffa01fffefe01U,
  0xfdfffc0100fc0003U, 0x400fefffdfcff01U, 0xf900020603fe02feU, 0xfd030bf900f8030aU,
  0xfa0205fd01010000U, 0xf40409fd0106fe00U, 0xfbfafffffcffff00U, 0x302fcfefe000002U,
  0x5fcfcfc02fefeU, 0x1e0000fffcfeffffU, 0xffe9fdfefe000001U, 0xf8fcfcfefef9fdf4U,
  0xfffefffd01030102U, 0xff00ff0002ff0100U, 0x1fe1afd02fdff00U, 0x4fffe00ff04f400U,
  0xffe800ff03000200U, 0xff01ff04fffafdf4U, 0x2fcfefefd14ff01U, 0x30401f000feffU,
  0x50104fefc05d7f3U, 0x100fefbff010003U, 0x1fe02ff0003ff12U, 0x2050205fa010104U,
  0xfcfbf2070901f902U, 0xfe02f4f802ff00ffU, 0xb01fe0001041900U, 0xf9fcff0500070d07U,
  0x7070afe00fe03f8U, 0xfe00fc0003f601U, 0x210fd05fcfc01U, 0xfefefff3fe05ecfdU,
  0xe4030601010101U, 0x3fffe0102f4fafbU, 0xff0a02e20afdf9U, 0x30009feeb04ff02U,
  0xfa01ff05fe00eb04U, 0xf804020300fc012bU, 0x1f503feff02fef1U, 0x60501fff7fe0103U,
  0xfd00f3ffff0cedffU, 0xffef150bfbfffcU, 0x1fdf902fe230402U, 0x4fcfe0100fd0dffU,
  0xda0e0cfd00edfcefU, 0x405fefffefffc06U, 0x300d500fb02ff00U, 0xfd020000fe03f705U,
  0x10e0400fdff0003U, 0x1fe0001fffa04f2U, 0x20001fef70c02f9U, 0x401ff0bfe0003U,
  0x601ff01fffd23feU, 0xfd02000301010103U, 0xfffeff0206fe01fdU, 0x404fc0104000100U,
  0xfe02f5000e04e900U, 0x115050403ff02U, 0xf6fafe07fdf508feU, 0x4fefffcfb0606ffU,
  0xfd0700fd03fb0005U, 0x20000f901fefd00U, 0xd04fc05fc02070aU, 0x2080f0902fffc05U,
  0xfcfa01fbfe010606U, 0x6030bff00130beaU, 0xec031308fa0900feU, 0x508fef5fef4010cU,
  0xfb030405fe0905f8U, 0xf9fbedfe0514fef9U, 0x50b0502f70101f7U, 0xfe06030407010500U,
  0x5f10104fcfd04fcU, 0xfcfcff03020509ffU, 0xfef90a0afb03fe04U, 0xd11f9090107fb06U,
  0x5070301faf801U, 0x1fcdc1401faf3U, 0x4000106fe07ffffU, 0xf8000008fe04010aU,
  0xf01f80701ecfcfbU, 0x1010004f904fffdU, 0xfc0504fe03fd0201U, 0x9fdfc0bfcfdcb03U,
  0xfe05f40501fefe00U, 0xfcfd0514fa0011fcU, 0xf902080100040304U, 0xd020203fd03ff04U,
  0xf90b0100fd05fffeU, 0xaf9fffffd020001U, 0xfd03fd0508060203U, 0xfc050003f8f90401U,
  0xfef8fc01f9fb10feU, 0xed053d08fd0604fdU, 0x2fffbfd33ff0203U, 0xf9fdfefe050805f9U,
  0xfefd04fd05f60001U, 0x4f6f9fbf5f5fb07U, 0xf9fb0afffd07fdU, 0xfdfc04fc0104feU,
  0xfd040400fcfffe05U, 0x4fff807090cfa01U, 0xfdfffaddfef7f8fcU, 0x1e06f9fbfcfafe02U,
  0xfff600fe05060004U, 0xf6fd03fefbfe0106U, 0xfc12fcf803010003U, 0xf9eb05fffdf9030bU,
  0x1fa03030100fe00U, 0xfffb020001fdff08U, 0x18fd0b160de30209U, 0x80207fb00f90815U,
  0xfa0a06f703081911U, 0x13060f010c0d07f4U, 0xb01fc1903f9e5f5U, 0x50f1204030af700U,
  0x80703ff02090107U, 0x1104f90312030608U, 0xfeff13040efef3feU, 0xeff9fc0d0b000502U,
  0xef4fafe0605f7f3U, 0xeaf5040405170402U, 0x60213f6fef90509U, 0xfffe01000e0df008U,
  0x1308041002fcf60aU, 0x21107ee09f6fef8U, 0x30d03fe01f802U, 0xfc01fffffdf60e02U,
  0x50d020600fefe00U, 0xfefdf901ec0201ffU, 0xfd030405ff040bebU, 0x2fb05fe01f7fefbU,
  0xfa00121008fd0209U, 0xf503f8fbfffbf7ffU, 0x3fcff0106f203fdU, 0xf502f9020107fdfaU,
  0xfefcfb050700fb08U, 0xfbfdfbff0302f9f1U, 0x5fe030112fb03fcU, 0xfffc00fef9fdfcU,
  0xfefb00fdfc00eeffU, 0xfc0501feff00fe00U, 0x3330107000100U, 0x3050208fdf90804U,
  0x2d4fe0203feff00U, 0x1010201f5fff4U, 0x2fb0101030b0003U, 0x104fef508fefaU,
  0xfffbff01fc02f305U, 0xfffe02000004U, 0x3020201fcfc02fdU, 0xfc02fb01fffdff02U,
  0xfeff050700010605U, 0xfb02efff0602ffffU, 0x60303f103fa0402U, 0xfdff020108fdfeU,
  0xfc0007fefb04fd09U, 0xff02fcff02fb02U, 0x2a0504f3fa0403U, 0xff0c01f9fa0a03fcU,
  0xfefdfcf9010bfe01U, 0x3fdf6f5050e04f7U, 0xf7fe0b0a12e5f4fdU, 0x1fe05fc05f5fa0bU,
  0xf402fa0102fcfc02U, 0xf2f403fa030e000eU, 0x207f80408010bffU, 0xf7faf4f4faf4U,
  0xf5ee35fd13e503U, 0xfe03fd08ff0400U, 0x3fafeff08fcf5fcU, 0xdf90d0bf9fa1cfdU,
  0xecfaff03f9200613U, 0xfafdf90a000801f4U, 0x1ebfa0808ef0200U, 0xf5fbfdfb0302fcfaU,
  0x5fdf3f90300f905U, 0x30006f901020101U, 0xf105fcfdfeef0afdU, 0xfc060b00f5f00300U,
  0x5fef8fc0403f70aU, 0xff04e8fd010cfe00U, 0xf50407e205fcfcU, 0x211ff02fd07f9U,
  0xfa0de7f1fe0cf1U, 0x3ee01fdfefd01faU, 0xf9f9fd0efb00f302U, 0x606e444000bff0bU,
  0xfefdff00fefcfa05U, 0xfd0201050407fe09U, 0x101fffdff0000U, 0x100fefeff00feffU,
  0x1feff01000000U, 0xffff01fe01feU, 0xfffffd03fcU, 0xff0000U,
  0xffff0001000304U, 0x2010000ffffU, 0x1fffffb0000ffU, 0xff000100ffff00ffU,
  0x20401010005ffU, 0x1ff01ff0000ff00U, 0x800fe0300U, 0xfd00fd0105ff00U,
  0xff01ff000000feffU, 0x1ff01000000feU, 0x5fffd0002010400U, 0xfa01050305fa0002U,
  0xfbfefefd00fe0300U, 0x2050c01fc0405fbU, 0x4fcfffe07f40102U, 0xfc0200feffff04f6U,
  0x4fefc06fd020302U, 0xf90200fe0301fc03U, 0xff010203fdf9fa0aU, 0xfb030301fe0402fbU,
  0x2fdfb07f608U, 0x10c00000302ff0bU, 0xfefd080000030308U, 0xfc02010105fb0306U,
  0xfe07000100030009U, 0xfe00fd02f70707U, 0xf3fdff0201fdfd04U, 0xfdff0106fc02fff9U,
  0x1fbfd01fbf1fd0cU, 0xf002fe01fb000102U, 0xfdffff0200fbfa02U, 0xfd0ff4e3fefcfe07U,
  0xf4060602fcd80101U, 0xf8000004f002fdffU, 0x40ff05fcf7fb0afaU, 0x40200fdfcff03fbU,
  0x1104fc04ff0001feU, 0x301fefeff0d0801U, 0x3fb00010003ff02U, 0x5fffe02000002fdU,
  0xfe0203f602fcfc04U, 0xfa01fcf9080004fbU, 0xfdfefe01fe0cfefeU, 0xf9fdfd00fe06ff03U,
  0xf9f2ff000102U, 0x2fefc05020005f9U, 0xfa00010200f40502U, 0xff0600fdf6fef6U,
  0xfe0012fafe00ffffU, 0x3fff8fcfd03fbfeU, 0xfd1500fffb020800U, 0xf8fe0102fc050100U,
  0xff05f90107fe06f3U, 0x2fafcfdfc02ff00U, 0xfcfefff5e0fdfefdU, 0xff00fffe030012feU,
  0x204fe0202f70efdU, 0x1fbfb00fa01f7U, 0xfc0108fefafafdfdU, 0xf8fa01fefafe0205U,
  0x40b06fc0001ff00U, 0x5fcf9ff1c03ffU, 0x406fb0103ea0efaU, 0xfaff0101e20800f8U,
  0x3fbfc05fefe010dU, 0xfffefe020000ff0bU, 0xf4fefaefff01fcU, 0xfd01000200fafb03U,
  0x106f704f30728ffU, 0xfafbfe11f700fe06U, 0xdefdfeeffc060502U, 0xfffdfef3fdf4fd01U,
  0xfefa1301060a0100U, 0x50cfbfffe0301fdU, 0x506fd02fbfa04f2U, 0x102ff04fdfefe01U,
  0xbfd06fef0faf9faU, 0x204fbfd05fb0306U, 0x1002020100fe09feU, 0xfbdf00fa01020505U,
  0x3010e02fc0501ffU, 0xfb0700020508fafeU, 0x43faf7faff00ff06U, 0xafcfffe0501fcf9U,
  0xe4050101fefd0704U, 0x50304010004f901U, 0xfffd03fefe04ff01U, 0xfe000100fefa03f8U,
  0xfcfeff05fafdfe02U, 0xe000ff0302120303U, 0xff010101fd0100U, 0xff01ffff00fd00ffU,
  0xff010305fe020000U, 0xff020000f7020000U, 0x100ffff0000fefdU, 0x1fe010001fa04U,
  0x8f700ffff01U, 0x20003f901fd0200U, 0x1ff00fe010500ffU, 0x2ff00fefe0001feU,
  0xffff00ffffff05U, 0xfefaff0001000202U, 0x101020400ff00U, 0xfe02010101fdU,
  0xfdfe0e00U, 0x100fffd0002fffeU, 0x102020000U, 0x2fdff00U,
  0xff0004000000ff00U, 0xff01000000010001U, 0x1ff0000010000ffU, 0x1ff0000010003fdU,
  0x1ffff03000000ffU, 0x100000400fe0100U, 0x1ff000000feff01U, 0xfa00000001ffff01U,
  0x200ff01ff03U, 0xfa010000000000U, 0x1010100fcff0001U, 0x10001010100U,
  0x100ff02010200U, 0xff000101ffff0102U, 0x205fcfffe0300ffU, 0x303fffffc02fdU,
  0xfcfb0afe00040102U, 0x40407ff0303fdU, 0x20104fd00f70304U, 0xff0103ff0405fdffU,
  0x6fd050502020003U, 0xa01020403060102U, 0xfc0204fffe0001U, 0xf80307fe03070005U,
  0x1fd00fe06000004U, 0x4fe010303fefbfcU, 0x404050508ff03faU, 0x204020002ff0204U,
  0x50303010004fd01U, 0x203fefb03fd02fcU, 0xfaf800fd0412fafdU, 0xfd02fd03f314fdfdU,
  0xfdfd06f7fa090201U, 0x5f9fc00f0fdfafeU, 0xfe010306f80309f5U, 0x20621fcfee7f6f3U,
  0xf80113f00406fb00U, 0xf3f7e60205120500U, 0xfb0101faf5f80506U, 0xfbfb01fc00e90bf7U,
  0x3ddf503fafd060aU, 0xedf004000102fb00U, 0xffdff6ebfd05f9faU, 0xfb00eff8fe05f401U,
  0x5fd04fc10f8f202U, 0xfd05f8f905fa0809U, 0x4060e0102000101U, 0x60303fe0aff0003U,
  0xfde8fbfdfe030402U, 0x80003fdfd0d03f3U, 0xfbfe00ff0100f904U, 0x702fcfbfbfffbU,
  0x2fd0700fe0700f9U, 0xfefdfafc0203fe05U, 0x407f70303fdU, 0xfd04fd0106ff08feU,
  0x3fa03fe05020005U, 0xfffdfb03050502U, 0x2fe04fbfd0c030bU, 0x401fd0203fbf704U,
  0x204030402f9f704U, 0xf9fefdf30401fdfbU, 0xdc0afdf3faf1002aU, 0xf8070d00fc09fa01U,
  0x1afffcf8f9fbf9f8U, 0xfd05fafe05fe09feU, 0xf705ff070102080fU, 0xfefa06030103f405U,
  0x5fbfe11f900f6feU, 0xfc02071a1302f7U, 0x10f90bff020503ffU, 0xa0000fe01fff7ebU,
  0xf4020505f7ff02f6U, 0xfdfd02fe03fa04deU, 0xffff0ffb0105f400U, 0x4f9020308030906U,
  0xfdfefd0100f4000aU, 0xf50205fa0801fcf6U, 0xfbfafcf3010608ffU, 0xf501f305f9fdfc04U,
  0xf6f903fffd050104U, 0x603f5050400fb03U, 0xfcfafa0d0204fc00U, 0xdf0003fefe0bfe01U,
  0xfbf0f9f8fcfdfefcU, 0xbfa06f1050d0b04U, 0xf9fafbf8fbf912faU, 0xfefd02efff03fef4U,
  0xfff9ff02fb04ff06U, 0xf9fbfff8fef5fa0aU, 0xfcfbf902fc05fdfcU, 0x4f6ff0200f6fbfdU,
  0xf8fef8ff3c01fbfdU, 0x7fa1401f519fefaU, 0x200fdf900fdf9fbU, 0xf6fffc030005fe04U,
  0x2fbfcfe05ff05ffU, 0x202effb01ff04ffU, 0x500f90805fcfa04U, 0x201fcfffffb03ffU,
  0x8fdfc020002fcU, 0x302040302010001U, 0xfc040002fefdff04U, 0x203fc0603fdfcfeU,
  0x2010200fd07feffU, 0x20203feff040beeU, 0xffff02fa00040005U, 0x17fd0202fb01ffU,
  0xfc03fd02fa00ff06U, 0xfb00ff09fdff0506U, 0xdfff00f00002dadeU, 0x100edff000c00feU,
  0xfe00f603fd0302e5U, 0xe300f3020303f4feU, 0x300f3db00fe0a08U, 0xff02fffd00030002U,
  0x4e00704f103ffffU, 0x30001fc04feff00U, 0x4fe02ff0306feU, 0x3000100ed0502ffU,
  0xec0000fffe000000U, 0x70403ff05e0f5U, 0x103ee0602010100U, 0xfbf704fd0400fb03U,
  0x40703e70602fef1U, 0xfdff00fddb0300fbU, 0xfffdff020204ffffU, 0x4020002ee0400ddU,
  0xfffffc010000e000U, 0x1020006ff0100feU, 0xfffd02ff04000005U, 0x2e6030203fe0302U,
  0xfefb060103e70101U, 0xfe0002fceffcffffU, 0xfffde1f90003ffffU, 0xfa04e5fc02ed01U,
  0xff000101fe040002U, 0x307020201e4feffU, 0x300ff07fe0101e9U, 0xfd02fe03000203f8U,
  0xfeff02020200fe02U, 0x2ee0205fefbfffcU, 0xffff00ff01fdffffU, 0x501ffffff04ffffU,
  0xfe01ff00U, 0xffffff00fe01ffffU, 0x10000fffe000001U, 0xff0001000101fc00U,
  0xff0300fe000100U, 0x100ff000101ff02U, 0x102ff0002fffffeU, 0xffff00feff0201feU,
  0xff000000fe0101U, 0xff0201010100ffffU, 0xfefffcffff02ffU, 0x10002000002fe00U,
  0x20001000100fe01U, 0xfeff01020001fe03U, 0x7f00004fc000505U, 0x8f80afef3ff02f5U,
  0xfe00fafffdfbf505U, 0x5f107ff0602fef6U, 0xfe00ff05f9ff0104U, 0x1f9fc02f8fffd01U,
  0xf90605ff08f80202U, 0xfc01fcfefbfe0002U, 0xfffef6f809ff03fdU, 0x2f6fdfa0101fafeU,
  0x3fdf9fbfefdf901U, 0xfeff01fefaf30804U, 0xfa000201020001f5U, 0x209fc0201fdfcf6U,
  0x203fe01fc04fe03U, 0xfaf9fcf90503fffdU, 0xfd05fefcfd01fdffU, 0x404fc010608ff00U,
  0xfdfafffe000300U, 0xfbfefcfd04fbfdfdU, 0x1fdfcfe030cfc01U, 0x5020000fc01ffU,
  0xfdfe02fdfe0406fcU, 0xfbff00fc010500f7U, 0xfff50204fc0001ffU, 0xfb02fe00fbff0200U,
  0xfd06fa030503fefcU, 0x2fd030205030002U, 0x1fffdfefe030203U, 0xfdfffff6030c0403U,
  0xfc0602fc0404fff8U, 0xfffb01fffcfeffffU, 0xfbfd01f803feff00U, 0x302f90201f900feU,
  0x10104fdfd1dfd24U, 0xf005feffff01fffdU, 0xb01fc0400020b07U, 0xfdfdfb13000007ffU,
  0xff010600f8ff00ffU, 0xfafefff9fd02fa00U, 0xd003fffefbff0902U, 0x5fffc0103ff0a00U,
  0x11fefe0100020001U, 0xfdf501ff0004fb01U, 0xfb0300020102U, 0x5050102fe020302U,
  0xfe01ffe205010004U, 0x4ff01fe06f20202U, 0xfffe020301fefe00U, 0xfffffefbfdfe0604U,
  0xfd00fefdfd0104fdU, 0xf9fefcff0001feU, 0xf301fc03fd040005U, 0x1fe090001fdfd0bU,
  0xfb0307fc04000206U, 0xfe02fc00fcff01feU, 0x200fc00fd0906fbU, 0xdfbfc04fffefffbU,
  0xf9000002fe03f8U, 0x4010200000302faU, 0x2f4fa00fefe0302U, 0x406fefc00020100U,
  0xff0101010101fbfeU, 0x201feff0000fdfaU, 0x305fff9010001fcU, 0xff02fc01fdfefef8U,
  0xffd03050e0205ffU, 0xfafc00ff00f8fcfeU, 0x5cd01fdff0207f8U, 0xc6010301000304ffU,
  0x19f9050016fcff00U, 0xfeff0003fe01fb00U, 0xfc0002fb030203U, 0x1fafe11010101ffU,
  0x1ff010400fd04f9U, 0x100000306040114U, 0x1fdfc00ffff01ffU, 0x10202010600feffU,
  0xfcfffe1101fa00U, 0xfd04ff03f6040001U, 0xff0403f502fd0208U, 0x2fe00ff06f500fcU,
  0xf503fe00f6fefbfeU, 0x2fe02fd070302feU, 0x4dd0108fa00fbfaU, 0xd8020c02ff01ff04U,
  0xf8f9fb010d00fffcU, 0xf80103fe01040afeU, 0x40007ff00fbfdfdU, 0xfdfcfd0cfb000101U,
  0x906fd02fe030001U, 0x5fd0003fefc04fcU, 0x30002fa040afeffU, 0xfb0002fdfe010106U,
  0x3fe030514fd0508U, 0x6fe0003fd040105U, 0x1afcfffff9ffedc2U, 0x5050708fbfa0402U,
  0x3020100f8fdfdf1U, 0xed00020000fcf504U, 0x306f0030112faU, 0xfefe0400ffff05ffU,
  0x4f7ff0401000207U, 0xfd0003fa0901f701U, 0x5f801fd04fd0302U, 0x202fd01fe00fafbU,
  0xf6fc000005050602U, 0x207fe000800f207U, 0xfd0102fe0605fcU, 0xf604fe02fefd0300U,
  0xf802010107f90401U, 0xfd070400fcf305fdU, 0xfd09fe02fdf8f7f8U, 0xf209fef701021402U,
  0xfd02fe04040203ffU, 0xfb00fbfaf8f5fd12U, 0xfc0103fc0eff05ffU, 0xf806050002fbfe06U,
  0xf8f90302ff04fe00U, 0xfffc01020108ff15U, 0xffff01000fff01feU, 0xfe020404fcfd0502U,
  0xfbffee0af20cee06U, 0xfd09f5fa0603f8fcU, 0x2f900fa02f6f701U, 0x5fe03f5fd1b2701U,
  0x7fdfdfc0413fff6U, 0xfd0201fb00fefffaU, 0xfffc03fcfc01ffU, 0xfe020105feffU,
  0xfefb05f7fefefeffU, 0x3fc040b06fef5U, 0xfa02f90205f6010bU, 0x20003010100fff7U,
  0x10209fd0402fd17U, 0xfffd0302fdfffaU, 0x3f900020c0000feU, 0xf804020000fd01ffU,
  0xfe02e3fdfe04f705U, 0xfdf702fffdfe01ffU, 0x103fdfc1102fefeU, 0xfdfe08f705050602U,
  0xfa04010100fcfffdU, 0x1fefd0302060009U, 0x104020bf6fdffU, 0xc0cfff70501fafeU,
  0x4fd05fafb05fc01U, 0xff01fffbfd00fdf0U, 0xfe0104fcfd070dffU, 0x609fefffff9fbU,
  0xfeff0602000407f5U, 0xfffe01ff040afbfdU, 0x2f902020301fd00U, 0x70603ff01fb0501U,
  0xfeecf4ff03ffe107U, 0xfaff040cff02ffU, 0xf804f1fff80501U, 0xf800ee0efd132b04U,
  0xf7fb04fd050afcfdU, 0xfefefdf8ff0802fcU, 0x6ff04f80001fefbU, 0x1fe0204fefafcfaU,
  0xfc0001f801fc0101U, 0xfd0a05fffcfd0301U, 0x21df90205fe04feU, 0x16f60302fa0500feU,
  0xecf207fde6feffffU, 0xfc09ffff010afef9U, 0x8fc00fefb040101U, 0x2fafff8fa01fffcU,
  0xfbfd04fd0200fdf6U, 0xfffcfc01fe0507e2U, 0x5010efd00fe00fcU, 0xfff80103fcfd03ffU,
  0x10efd020201fd03U, 0xfb0503fc0902fbf8U, 0x7000404ff04fb0cU, 0x3fd0609fae00101U,
  0x4070801ff01fe07U, 0x5fd0a030cfe010aU, 0x305f702000e0efbU, 0x3f0f500fb0e0505U,
  0xff05fcff08fafcfeU, 0xb040206fcfffa0cU, 0x412fdfaf301ff04U, 0xf8fdfffa0308f500U,
  0xfefd13fe00fb0404U, 0x8fdfffefbfe00f3U, 0xfbfd03ff0407fcf5U, 0xe00040701eff9f9U,
  0x703fe07fcfa070bU, 0x305041a06f802feU, 0x205fbfff307ff01U, 0x8050401ff02f601U,
  0x2f9fef500fc0101U, 0x5fffafffc00f7U, 0xcff04fe05fdfffeU, 0x100fb0305fefdf9U,
  0x20009ff0100fef2U, 0xfdfd040302fffd05U, 0x20000fefa000102U, 0x703f80102f40005U,
  0x107f703fa05030bU, 0xfb00000402000101U, 0x50a0300fd03ffffU, 0x101f8fd00f8ffffU,
  0x1ff040001f8fb03U, 0xfefffcfd00000100U, 0xa00fe04f90304eeU, 0xf8fe07fbff0d0100U,
  0x13fb09fce826f530U, 0xea0a00f8fffbfefdU, 0x50102fefe090305U, 0xfdf40b4d010509f6U,
  0x6ff0204fed400fcU, 0xfbfe05ed07fae9ffU, 0xde03f7faf6fefa06U, 0xfd01ff01050202ffU,
  0x11fc000804fe00ffU, 0x10001fe010cf60cU, 0x2fd08fff7ff0403U, 0xfef5fe00f6fd05f7U,
  0xfdfffdddfbfefffaU, 0xfb0706040adc0101U, 0x1fbdffa02fdfe01U, 0xfe0efe1e0101f201U,
  0x10c05060200ffffU, 0x1feff0102f3fafeU, 0x2030c030808fcfeU, 0x60004fe0303ff04U,
  0x1fefd04fe000303U, 0xfafc0304ff000124U, 0xfef6ffff010200fbU, 0x8fe0400f9feff01U,
  0xfe01f902fde3f3feU, 0xc0d0502fefcU, 0xf0fbfa00fdf600ffU, 0x3fcfc0105fe0a02U,
  0xe10012fd06f0fff5U, 0x3ff0100fe02f304U, 0x1ff03fdfe03fe03U, 0xfc0300ff010703ffU,
  0xfdfcfdfc01020003U, 0x20afefefb04fefaU, 0xd00fc050ff8fd07U, 0xff01f901030102fcU,
  0xe90802f90003fd0dU, 0xf90404030601fafeU, 0x5f4020af9f7fd0cU, 0x9fafe05fb0400U,
  0x50000fdff11fd06U, 0x104fcfaf3050109U, 0xfcfef702f9fdfc06U, 0xfdfb0404fa03fe09U,
  0xfe14040100fafd01U, 0xfafd020705fc050eU, 0xffdffa000306f903U, 0x3f201fce308fef0U,
  0x1f9f802fffbe700U, 0x2e00003fa0102fbU, 0xfffe04fff3f91309U, 0xf20602f6fd0200U,
  0xeffe0107fff8fefaU, 0xfcfe0504f3f90104U, 0xfefdebe403fdfdf5U, 0x2de03ec0105f600U,
  0x602fcff01f1fd00U, 0x1020002fae8feffU, 0xfd01fd0203fe01dcU, 0xfc00eb0300ddU,
  0xffeaf8020502fb04U, 0x6f301fe01fffdfdU, 0x2fcf6fefc010603U, 0xfcf808feff04f4ffU,
  0x1fcfefdfefffd02U, 0x20400fe000e0603U, 0xf8010202fcf10a00U, 0x2fb05010406fffdU,
  0x3040203fdfd0200U, 0xfd0101fe00f70004U, 0xfc08fffbfe0102fdU, 0x1fe09fd00fdfb00U,
  0x10004f9fbfc0c05U, 0xfefa02f7ff03feU, 0x200080503f20901U, 0x40008f704f3fcfcU,
  0xb02000002010202U, 0x102fffd0402fe01U, 0x48600000cfcU, 0x85800001da9U,
